#version: 0.2
Ġ t
h e
Ġ a
i n
Ġt he
e r
o n
Ġ ,
r e
Ġ s
e d
Ġ w
Ġ o
n d
a t
Ġ .
o r
e n
Ġ c
i t
Ġ f
i s
e s
a r
Ġ b
Ġo f
a n
Ġ in
a l
in g
Ġ p
a s
Ġa nd
Ġt o
i c
r o
Ġ m
Ġ d
Ġ h
i on
l e
o u
Ġ re
Ġ T
i l
Ġ S
en t
Ġ "
Ġ 1
Ġt h
Ġ A
s t
Ġ l
e l
Ġ @
Ġ C
Ġ e
Ġ =
o m
a m
Ġ n
a d
a c
Ġw as
u n
Ġ M
Ġ on
e c
l y
Ġ '
Ġ B
u r
e t
i d
Ġ g
o l
i m
- @
Ġ@ -@
Ġf or
i r
i g
i v
o t
t er
u t
ĠT he
Ġ I
Ġa s
Ġ H
u s
o w
it h
a y
Ġs t
Ġ 2
Ġ he
v er
at ion
Ġ P
Ġw ith
Ġb e
Ġth at
c e
Ġ R
e m
Ġ D
Ġw h
Ġb y
c h
Ġa l
t h
Ġ )
Ġ (
Ġ W
Ġ F
Ġ is
u l
Ġc on
Ġa t
er s
c t
Ġ L
Ġ G
a in
a nd
Ġa n
Ġ1 9
Ġ N
o s
Ġ it
he r
ro m
a g
a v
u m
es t
0 0
Ġ J
Ġh is
Ġ r
un k
Ġ E
r i
o d
Ġ <
Ġf rom
is t
Ġc om
a p
Ġp ro
Ġ v
o p
i f
o re
il l
l d
Ġ O
u p
er e
e w
re s
ig h
i es
Ġd e
ar t
b er
ar d
or t
Ġs e
Ġw ere
ic h
at e
a k
al l
a b
an t
o c
u d
Ġe x
on g
q u
Ġo r
Ġc h
g h
e ar
at ed
Ġp l
Ġs h
es s
it y
i p
iv e
am e
Ġ K
Ġ â
Ġh ad
ec t
ĠI n
ac k
Ġ U
ou r
Ġâ Ģ
Ġs u
re d
as t
s e
Ġwh ich
Ġ k
ĠS t
m ent
Ġ le
g e
u nd
Ġa re
o v
i an
i al
Ġn ot
Ġs p
el l
o st
Ġ y
igh t
Ġt r
or d
u st
ar y
i a
t her
r it
p t
in e
Ġ 3
ou n
ic al
av e
p p
ĠC h
Ġ2 00
c c
Ġ un
Ġin c
f ter
ou ld
Ġb ut
ir st
is h
ou s
t e
ion s
s o
Ġcom p
f f
Ġ2 0
id e
Ġ ro
Ġw he
u re
Ġ V
Ġa r
Ġcon t
r a
u b
Ġ ;
Ġf irst
ig n
Ġc l
w o
Ġhe r
i e
Ġit s
Ġthe ir
u e
o g
ĠâĢ ĵ
or m
as s
or k
Ġin t
Ġre s
Ġ :
o k
at er
Ġal so
Ġa b
Ġa d
om e
on d
ou t
ag e
ĠH e
r y
m er
i re
he d
Ġ us
d u
T he
im e
l ow
r u
Ġp er
Ġ 4
p er
an s
Ġwh o
Ġon e
Ġh ave
Ġs c
Ġ 5
p l
al ly
ow n
i le
an ce
Ġre c
t ed
. @
Ġ@ .@
Ġ1 8
Ġt wo
it ion
u gh
re e
en ce
ur ing
ĠT h
p ort
Ġbe en
Ġp art
Ġb ec
t s
Ġh as
ic e
i z
Ġa g
Ġa pp
, @
Ġ@ ,@
ou gh
Ġ20 1
Ġ en
Ġ j
Ġd is
l ud
Ġo ver
Ġth is
Ġs er
or y
Ġy ear
el y
ation s
a re
em ber
ct ion
ou nd
k e
Ġof f
Ġa fter
Ġ up
ac h
Ġpl ay
Ġd es
l and
ac e
o ver
ĠA l
ar k
r ic
Ġo ut
Ġthe y
Ġt e
ad e
ĠI t
Ġo ther
ac t
Ġm an
i b
Ġ im
ul t
Ġinc lud
res s
c ed
a il
ur n
w n
Ġw ould
en s
Ġ Y
in d
Ġt ime
Ġint o
m an
Ġp re
an g
on e
w ard
e p
Ġh im
Ġw e
o in
w e
it e
at es
Ġs he
ĠU n
Ġ 6
l es
re n
Ġe v
ab le
Ġat t
as ed
il m
it ed
e nd
am p
e ver
i ed
as e
Ġcom m
or s
Ġin ter
ro ugh
oun t
o y
f orm
n e
on s
Ġal l
Ġm ore
Ġw ork
o od
c es
Ġ 7
er ed
ol d
a w
ing s
v el
il d
Ġn ew
Ġs ec
Ġb et
ĠA r
ic k
os e
Ġwhe n
Ġf ilm
in al
v e
Ġf e
ent s
i ous
ak e
w ay
a us
f er
at t
re at
f t
Ġcon s
is s
ro und
Ġ 8
Ġre m
g an
ri b
ro p
v ed
ĠA n
ĠM ar
as on
Ġd ec
Ġd uring
Ġ und
or th
ub l
Ġag ain
h ip
Ġm ost
Ġg ame
Ġp r
Ġ 9
Ġthe m
Ġon ly
ot h
we en
Ġ19 9
Ġe ar
i x
ol low
Ġth an
at h
Ġs up
Ġn e
ation al
f ore
Ġab out
Ġpro du
o b
Ġc ent
s s
Ġre t
ter n
Ġch ar
Ġs ong
Ġc an
ĠN ew
ĠS e
ou th
u g
Ġbet ween
Ġl ater
Ġre le
Ġund er
Ġth ree
Ġk n
ic t
Ġc ol
Ġa ct
t on
i ew
a id
Ġ 00
r on
Ġth rough
al s
h n
Ġ qu
or ld
Ġn um
o ok
Ġs o
Ġa cc
Ġm e
Ġre l
Ġwh ile
Ġe nd
ĠE n
mer ic
I n
an k
le ct
Ġf l
ĠA meric
ter s
Ġp os
r al
oc k
Ġsu b
n ing
Ġas s
ĠL e
ul ar
at ing
Ġwhe re
Ġ ver
Ġd ay
Ġre g
Ġsec ond
Ġb u
en er
Ġm ade
am es
is ion
iv ed
c k
Ġp e
Ġrec ord
Ġde f
b um
ĠR e
Ġf our
Ġg ro
ĠC om
Ġf ollow
Ġse ason
Ġ00 0
Ġfor m
Ġs ome
Ġe p
Ġsu ch
s on
is hed
Ġa m
Ġm ov
o ol
Ġbe fore
ain ed
Ġm us
Ġw rit
Ġthe re
he s
p h
Ġsp ec
ic s
i ke
Ġyear s
Ġte am
Ġ1 0
i el
Ġs y
i o
od e
Ġ /
id ent
u al
Ġl ar
ĠS p
Ġal bum
ĠO n
Ġin d
ow ever
il y
ĠJ o
Ġus ed
Ġ ent
Ġg r
he n
Ġc all
Ġs ur
if ic
Ġh igh
Ġa c
Ġp ubl
ur y
Ġbe ing
ĠTh is
Ġep is
Ġthe n
l l
or n
vel op
Ġd o
Ġl oc
t en
Ġex p
if e
Ġagain st
Ġin v
Ġ1 7
a j
ot her
r is
Ġp res
Ġb l
ĠS h
an c
Ġnum ber
Ġsh ow
Ġchar ac
an e
Ġse ver
Ġ 0
Ġad d
Ġs et
Ġc o
in ce
Ġbec ame
Ġre ce
j ect
aus e
al e
Ġle ad
Ġper form
ĠB rit
Ġinclud ing
Ġb r
Ġs ing
ar s
Ġn o
at her
ĠâĢ Ķ
er m
Ġf ound
Ġw ell
in es
e k
ĠUn ited
Ġre p
ĠA t
Ġm on
Ġp ol
a ir
Ġb ack
Ġb oth
Ġser ies
Ġc ap
ĠA s
Ġ1 5
Ġ19 8
o ber
Ġ1 2
Ġsh ip
i er
ow er
em ent
i red
u res
ĠS c
it s
Ġm ain
iv ers
Ġ19 4
er t
Ġm in
p en
le y
over n
Ġd id
i et
Ġg o
d er
Ġc re
el f
Ġde velop
Ġim p
l ed
r am
it ies
Ġl ong
Ġm et
ĠS he
i k
iv er
is ed
an y
ĠEn g
v en
ol og
ĠC on
t ing
a red
Ġm ill
ir d
Ġe m
Ġa ir
u ch
f ul
Ġm at
Ġepis ode
te nd
a z
ire ct
Ġs aid
Ġst ud
Ġman y
Ġb ro
ut e
an n
Ġde p
Ġc ould
at ive
Ġor ig
Ġc ar
Ġcont in
Ġw ar
Ġsever al
Ġ1 6
th ough
Ġd if
ĠJo hn
Ġin st
Ġp op
ĠAmeric an
as h
ou se
iel d
Ġkn own
em b
is e
Ġ19 7
ĠI nd
t y
u ally
Ġcon c
t il
Ġ19 6
ĠW h
ĠC l
Ġ1 1
i am
v iew
ĠA ust
in s
ers on
Ġo b
u ed
Ġret urn
Ġbe gan
Ġs m
Ġan y
Ġcomp le
Ġdes ign
ĠW ar
ĠB r
Ġdes c
Ġs ign
op le
ch ool
ro ss
an ge
m y
Ġ est
ak ing
cc ess
Ġtr ans
Ġpro v
h y
Ġfe at
o ot
Ġin f
Ġr un
Ġear ly
a h
er n
Ġar t
Ġmus ic
Ġo wn
Ġd ist
Ġn ear
Ġrele ased
id ed
ĠF r
Ġun til
r ap
Ġcall ed
iz ed
is m
Ġe ff
ĠA fter
im es
Ġres p
ĠD e
Ġb el
Ġp ass
un e
u red
st em
Ġf in
ial ly
ĠB l
ist s
Ġd own
ĠU S
ut ion
ĠC ol
ĠM ay
Ġdis c
Ġc rit
ment s
os ed
Ġd irect
Ġ Z
Ġg ener
ĠB e
Ġal ong
x t
Ġin s
Ġmill ion
Ġpre v
er man
Ġgro up
Ġoff ic
Ġf am
ĠBrit ish
en n
Ġthe se
Ġ1 3
aj or
i um
Ġm od
ul l
Ġm ay
a x
Ġ $
Ġo pen
ce pt
Ġm il
Ġp oin
el s
ain s
e b
Ġl and
g est
Ġs im
Ġhis t
Ġg overn
g er
ĠA ug
ĠSe pt
Ġsu ccess
Ġst r
er v
ĠSept ember
ĠAug ust
ĠSt ates
Ġo per
Ġc ount
Ġatt ack
ib le
u c
Ġg u
Ġs ame
Ġus e
ward s
Ġdesc rib
Ġpe ople
et s
ĠW orld
Ġcharac ter
ac ed
Ġbec ause
am ed
in k
ĠA p
ĠA d
ain ing
Ġl ike
y p
Ġser v
Ġ1 4
Ġa round
Ġst art
Ġth ough
av ing
ĠJ u
Ġ ed
Ġk m
Ġw in
Ġ19 5
Ġcon st
Ġto ok
Ġo cc
u es
ru ct
Ġb att
ĠI s
n er
ĠO ct
Ġsup port
ov e
p ed
ĠAust ral
Ġfollow ing
Ġd r
Ġs ix
Ġn orth
ĠG erman
Ġe le
ĠN ov
Ġ19 3
Ġsy stem
Ġapp ear
Ã ©
Ġf inal
Ġrece ived
Ġcl ass
e y
us s
ĠAl l
ĠP l
ĠOct ober
Ġcons id
Ġp rom
Ġhe ad
iv es
Ġan n
Ġ Q
ant s
ĠT r
il ity
Ġst ate
Ġe ver
Ġbu ild
Ġ19 1
en e
ĠH owever
Ġe ach
ĠC ar
ical ly
ĠD ec
ĠF or
Ġf ive
l ing
Ġad v
Ġex t
an u
Ġcent ury
Ġa ut
Ġare a
re t
Ġw ill
Ġv ar
ĠY ork
Ġsm all
ĠP ro
at ely
Ġb o
Ġpart ic
Ġl ife
g in
iv ing
Ġre port
g et
Ġ ]
ĠThe y
ore d
t le
os s
ĠN orth
ord ing
ĠJ une
r il
Ġc ity
Ġ [
Ġcont ro
Ġm ajor
Ġwe ek
Ġpubl ic
ian s
Ġm ar
Ġ %
ĠJu ly
iss ion
Ġcon f
Ġb and
ect ion
Ġre f
ĠNov ember
ĠK ing
m ed
ur ch
Ġre st
Ġw orld
Ġs ince
in c
Ġm ed
Ġsing le
in a
ra ft
es p
ĠAp ril
p or
ĠCom m
l ish
Ġd et
Ġj ust
ri ed
ĠMar ch
Ġl ast
ect ed
om et
he st
ĠM e
ur al
ion al
Ġt urn
ĠH ar
iv ely
Ġal low
a im
Ġhe l
il t
ĠW ill
i ent
Ġar r
Ġ3 0
Ġp o
Ġle ft
ag ue
Ġlar ge
ĠC an
Ġl ine
Ġdif fer
id ge
ĠP r
Ġc are
c l
Ġs outh
al es
if ied
r ist
Ġb ook
Ġver s
ĠE d
Ġs chool
em pt
ĠS outh
. .
Ġth ird
ĠDec ember
ĠG r
av y
Ġs l
b le
Ġinc re
at s
ĠM c
Ġmon th
Ġd ue
Ġapp ro
in ed
Ġplay ed
ĠB ro
Ġm uch
Ġev ent
ro te
Ġan other
Ġ if
Ġ2 5
anu ary
Ġinclud ed
Ġwh at
ĠJ anuary
Ġ19 2
Ġb ased
Ġpl ace
en g
ĠG e
Ġsh ort
ag ed
ro w
b y
Ġgovern ment
ĠI I
Ġex pl
og rap
Ġp erson
Ġw rote
Ġtr ack
on y
b all
Ġc amp
Ġo ld
Ġt it
ne y
Ġn ame
ap an
ĠO r
Ġde ath
Ġb re
ent ly
al f
Ġp ort
Ġp h
ag es
Ġe lect
Ġw on
p le
i ence
Ġch ild
ĠE u
ĠJ apan
Ġl it
Ġpro t
ĠP h
Ġk ill
Ġ. ..
Ġen g
Ġst ory
Ġpro g
ide o
Ġp ower
o ad
Ġre view
od y
ĠB y
Ġv is
Ġh ome
it al
Ġl ed
Ġdescrib ed
Ġprev ious
Ġre qu
Ġc our
Ġfam ily
Ġg un
om an
Ġw ay
ot t
Ġn amed
Ġr ight
Ġn ow
ur ther
Ġd em
Ġev en
iv en
Ġm ake
i od
Ġm en
emb ers
il ar
ĠT e
Ġle g
g ed
ivers ity
Ġatt empt
is ter
re en
Ġb est
ent ion
on t
it ions
om in
Ġre pl
iv ision
Ġo pp
Ġ Â
Ġg ames
c y
Ġ1 00
ren ch
a ff
ac hed
ĠM us
Ġt erm
Ġcomm and
Ġto p
i or
Ġh and
Ġpos s
iv al
Ġbel ie
Ġver y
Ġd am
Ġth ose
n ess
eb ru
m p
s h
ebru ary
Ġis s
Ġst ill
ĠF ebruary
ĠG u
Ġor gan
ĠEu rop
Ġne xt
Ġspec ies
Ġeff ect
Ġv iew
ri end
an ces
s elf
Ġp ar
Ġcap t
ak en
l u
Ġorig inal
oc i
p s
at ure
Ġsp e
en ces
ĠN ational
Ġw ater
Ġadd ition
Ġj oin
o x
c hed
ĠCh rist
Ġl ist
er y
Ġwith in
Ġper iod
ĠEurop e
Ġm embers
Ġm ark
h or
Ġhe ld
Ġbu ilt
ĠA nd
Ġde b
Ġex per
ĠH is
Ġrele ase
Ġal though
Ġl ate
Ġfor mer
ĠF rench
Ġg reat
Ġmat ch
Ġ201 0
ĠF l
re w
al k
Ġs old
le v
Ġd est
a ugh
ut ed
Ġc ur
tend ed
Ġv ideo
l ine
Ġc aus
Ġst orm
ĠW e
ent ed
r ing
ard s
Ġc over
Ġin it
Ġro le
rop ical
Ġ2 1
Ġc ame
Ġest ab
Ġa v
Ġday s
Ġt ri
Ġres ult
a f
Ġm id
ĠB ar
ĠW est
pt ion
Ġst and
Ġre al
Ġpol it
ul ation
ĠP ar
id es
ec h
Ġh owever
l er
ĠW hen
he l
it ary
a u
o on
Ġc r
Ġm y
Ġ200 8
Ġpro p
Ġf ew
Ġto wn
as ter
ĠWill iam
Ġw ind
Ġ200 9
en se
Ġy ou
Ġs ide
e ad
Ġt w
Ġcontin ued
Ġof ten
ak es
at ic
n a
h am
Ġ2 4
Ġe qu
Ġloc al
Ġ X
Ġs k
t al
Ġp ost
om b
Ġam ong
ĠM in
Ġs ay
Ġsim ilar
Ġ201 1
ru ction
s ide
Ġcl aim
Ġh um
el t
g y
es tern
ĠA m
Ġ &
om en
at or
ĠM an
re et
ĠA ir
Ġdiffer ent
b r
ĠGe or
r act
Ġsu g
ĠEng land
re ad
le t
Ġbe h
Ġd el
Ġf urther
Ġt yp
y ing
es e
Ġs ent
Ġle vel
v es
Ġconsid ered
Ġt ake
ĠD uring
Ġl aw
olog y
Ġf re
ĠCh ar
op s
Ġcare er
ĠH er
Ġ2 2
et er
p ar
Ġ200 7
ot s
ĠM ich
Ġprodu ction
ro du
es c
Ġh alf
ur s
ĠE ar
u ck
ic es
Ġh aving
O n
amp ions
ĠC ity
m s
ap p
ĠP ark
un g
Ġmov ed
Ġe ast
Ġro ad
ĠN o
Ġm ag
Ġan t
ĠEng lish
y l
Ġwith out
Ġever y
Ġw est
m e
ĠThe re
er ing
Ġc or
Ġapp e
Ġplay er
Ġpos ition
Ġbec ome
Ġpl an
s p
Ġhist ory
ĠD av
Ġvers ion
Ġcon v
ĠR ec
Ġ201 2
ond on
b o
ron t
ĠC ent
Ġc ast
Ġinf lu
ĠC ount
Ġ el
Ġh ouse
ver s
Ġs ound
ĠE l
f ord
Ġcomm un
ĠC o
on es
ĠL ondon
Ġf ore
y le
Ġsug gest
Ġcl ub
iz e
ĠAn g
Ġ2 3
Ġstr ong
Ġinv ol
ir c
Ġwrit ten
c hes
at ter
ĠB att
Ġ19 0
Ġl ess
Ġb as
a ul
Ġst at
Ġann oun
ut es
ĠC al
Ġf oot
Ġor der
ap e
Ġre fer
iet y
ĠR iver
re st
Ġpro f
Ġpoin t
c raft
se qu
Ġg iven
Ġa ff
Ġt em
Ġl ow
Ġtr ad
Ġh ig
ĠCan ad
Ġw ant
Ġg ave
Ġr ad
i qu
Ġk e
ĠUn iversity
ren t
Ġf ar
Ġim port
Ġn ever
Ġt ro
al d
Ġch ang
Ġdef e
ail ed
Ġreturn ed
Ġp at
Ġs oc
or ies
Ġrep res
Ġto tal
ĠO ne
Ġv ict
Ġf act
Ġg ood
Ġcontro l
Ġcomp any
Ġw ent
Ġcount ry
Ġcom b
Ġf ire
Ġf riend
c ess
al y
ĠG ener
ro y
Ġpubl ished
Ġh our
is on
Ġprodu ced
g es
lev ision
Ġf ind
Ġreport ed
a un
ĠH igh
Ġorig in
is c
Ġy oun
ab ly
Ġl ost
Ġst ated
a ign
Ġcomm on
ĠP ol
Ġprog ram
Ġ200 6
il le
Ġpartic ular
Ġl ight
a i
Ġor d
Ġad m
c on
er r
Ġinclud e
ing ton
cc ording
ec hn
ur ric
Ġcomp et
Ġrecord ed
us ed
Ġbuild ing
h ing
Ġp ress
g r
ie f
Ġne ed
Ġpro ject
Ġfor ces
Ġb us
y n
Ġn ort
Ġship s
Ġsh ould
Ġus ing
Ġe ight
Ġinter est
Ġperform ance
are n
Ġserv ice
Ġpop ular
Ġ ide
pl oy
Ġt imes
Ġ2 7
im ent
ra w
Ġ5 0
Ġm aking
ĠS m
Ġ2 8
ĠE x
Ġair craft
Ġt en
Ġhim self
Ġaut hor
oy al
Ġf ather
Ġmil itary
t ain
in ess
Ġ201 3
os p
Ġbatt le
Ġan im
ampions hip
le ar
Ġs it
n ed
Ġsong s
Ġl im
Ġs omet
at ch
Ġf r
Ġre ad
ou ther
a e
ĠAustral ia
Ġcrit ic
ens ive
Ġdevelop ment
pl ay
it her
ord s
Ġh ow
ĠS w
ĠS ec
ĠA f
ĠA ss
al th
Ġs w
it ive
qu ad
ol ution
Ġ4 0
ĠA b
ĠThe se
outher n
ed er
e f
as es
Ġg l
ĠJ ack
Ġc ross
ĠP res
Ġ2 6
Ġ18 9
Ġg round
Ġf t
c er
Ġst ar
Ġrem ained
as tern
ĠGener al
ac y
ĠSt ate
Ġcharac ters
ol l
ĠAr my
Ġn ational
Ġg et
ĠC or
Ġst e
Ġmonth s
Ġsu ff
Ġpres ent
Ġd ied
ric k
Ġg en
Ġdevelop ed
ri es
ubl ic
Ġtit le
w ork
Ġs um
Ġf un
Ġch art
d om
Ġcamp aign
urric ane
ĠN e
ĠS y
Ġfor ce
Ġchild ren
um ent
f ic
re am
Ġint rodu
r ation
ĠD r
ĠLe ague
b s
Ġto ur
Ġprom ot
en cy
ĠJ ames
it ted
et h
Ġsign ific
Ġac ross
ist ed
land s
Ġs on
Ġa way
ress ion
Ġrel ations
ĠCom p
a el
Ġre d
her n
Ġob s
ĠAl though
Ġoffic ial
Ġf ield
Ġhist or
Ġf av
Ġp ra
ĠD ivision
Ġf elt
a ur
le ge
ĠAmeric a
ĠB o
Ġnot ed
ĠW ith
Ġf ac
m ost
Ġn ight
Ġannoun ced
Ġre ached
Ġinter n
Ġcre ated
ĠG l
Ġare as
Ġdest roy
ĠCount y
Ġte levision
as k
Ġst ation
o le
ĠR uss
Ġc he
al t
Ġc oun
Ġsuccess ful
ress ed
ĠR oad
Ġro ck
Ġ200 5
ĠJapan ese
im ately
Ġas k
Ġar m
v ent
Ġvar ious
ĠâĢ Ļ
Ġv al
ĠSt reet
Ġpolit ical
Ġse en
re g
Ġfollow ed
om p
Ġa ver
ĠR ep
Ġto o
Ġb ar
Ġr ank
Ġtr av
l in
Ġperform ed
it ing
is ing
Ġc ult
Ġser ved
Ġplay ers
c ast
i ber
Ġcon d
Ġf ull
Ġ201 4
Ġbe gin
Ġre v
Ġpr im
Ġ2 9
op e
ĠS im
Ġbl ack
al ity
du ct
ell ing
Ġf le
Ġp ut
Ġear l
Ġc irc
ab or
ĠM or
ĠWh ile
f ield
Ġc ost
id ence
ĠE ast
ĠS up
Ġs ol
Ġse e
Ġpro cess
Ġst yle
Ġl ook
ĠM ad
Ġt est
iz ation
Ġd iv
Ġse ven
Ġen c
ree k
Ġkill ed
Ġa ud
ay s
ĠM on
ĠSt e
Ġhel p
ric t
l ished
Ġle t
Ġthrough out
ĠRe g
Ġv ol
Ġt aken
Ġt ropical
Ġab le
Ġf ight
Ġdisc over
Ġn on
Ġag re
Ġlit tle
ert ain
ec ut
Ġw id
Ġbec om
Ġc y
Ġsignific ant
Ġa ge
Ġf em
et t
Ġme et
Ġh it
b or
Ġ ident
ĠA ccording
in ation
ĠGeor ge
Ġspec ial
Ġt echn
way s
ĠR ober
Ġwrit ing
Ġ er
o ice
Ġst ruct
ĠPh il
ĠB ill
Ġestab lished
Ġthough t
ir l
Ġbro ad
Ġc op
en ced
Ġf ront
Ġb ody
Ġm m
Ġappe ared
ĠS er
ĠH en
Ġdo es
Ġent ire
ep end
Ġco ast
Ġpoin ts
Ġ !
Ġmil es
c il
Ġcol l
Ġa ward
av al
ĠAustral ian
Ġimp ro
Ġro ute
Ġm ember
Ġdec l
ough t
g round
Ġw omen
Ġact iv
Ġr ange
od es
Ġcaus ed
Ġstart ed
Ġdec ided
ri pt
ur g
iv il
ĠE m
Ġfeat ures
lect ed
Ġgener al
Ġp ain
Ġevent ually
ĠA ct
d ay
he re
ĠP art
ĠAf ric
l ess
om m
av es
i ers
hy s
m ing
ir on
con om
ĠY ou
Ġr ace
at ors
i ec
Ġv ot
an a
Ġgro w
Ġman ag
Ġar ch
Ġfe et
st er
id d
og n
Ġto get
ĠM ed
Ġtoget her
Ġadd ed
ris on
Ġh old
ĠR oyal
Ġc ut
i us
Ġon ce
Ġwh ite
iv id
ĠH ouse
ĠDav id
Ġform ed
ĠR ich
amp le
Ġt re
Ġloc ated
it ar
Ġn ov
Ġ18 8
Ġst ri
Ġar g
Ġcon n
Ġmod ern
Ġinst ead
rough t
ber t
h ic
Ġro und
em y
m en
Ġ esc
um b
ort s
ac es
Ġb all
Ġimport ant
Ġm ix
ad es
Ġcre w
Ġp ri
Ġs aw
ĠP e
Ġa ction
ur b
Ġcomple ted
s c
c ing
Ġ3 1
Ġre du
he ad
ĠP er
Ġplay ing
r ay
ect s
one y
o ff
ĠQ u
am ent
ĠM y
Ġins p
ĠInd ian
Ġm ater
Ġpop ulation
Ġ200 4
Ġinv est
Ġb ase
ĠIn tern
Ġsur v
ĠS ch
Ġm ot
ell s
Ġr ather
Ġv oc
Ġocc ur
ĠH ist
Ġopen ed
Ġst age
ĠBl ack
Ġbeh ind
Ġother s
us h
Ġf all
Ġgun s
Ġ18 6
c ent
Ġbro ther
ce ed
as ing
Ġre n
Ġcom ment
Ġl ik
ign ed
em ents
Ġf if
Ġs ite
Ġl ive
Ġwork s
Ġl oss
st it
Ġwork ed
Ġb omb
fic ult
Ġ201 5
ap s
Ġhe avy
Ġm iss
ĠFr ance
in t
Ġr a
Ġp red
Ġsub sequ
Ġl ack
Ġpart y
med i
Ġpro ble
Ġdif ficult
Ġcl ose
le ction
wo od
ĠT o
Ġconst ruction
nd er
Ġkn ow
Ġrelations hip
ĠS chool
Ġweek s
Ġh ost
g g
Ġorigin ally
Ġse par
Ġass oci
Ġup on
Ġpr act
Ġlead ing
Ġapp oin
Ġal most
Ġv ill
Ġyoun g
Ġpe ak
Ġdam age
ar a
Ġin j
ar ch
ĠMich ael
ist ic
ĠW ash
Ġsc ored
Ġb orn
Ġfour th
Ġin form
an ch
Ġre ve
os ition
Ġprov ided
Ġm er
Ġc ase
Ġgo al
Ġcl os
u k
Ġeng ine
Ġc reat
at a
Ġre b
Ġac cept
l ic
Ġm or
ĠN or
Ġ200 0
Ġsc ene
ĠBatt le
Ġm i
ĠS an
Ġhum an
bo ard
Ġde v
Ġb rought
ĠH am
ell ow
Ġf ree
Ġind ivid
Ġ5 00
ang u
ĠP ort
Ġfeat ured
ĠB est
Ġm other
Ġle ast
Ġ18 7
Ġallow ed
Ġwork ing
Ġk ing
Ġres ul
Ġl aun
Ġaver age
Ġto wards
olog ical
Ġwant ed
ĠMus ic
Ġtrad ition
Ġind ust
Ġreg ion
Ġbus iness
A fter
ĠHen ry
en ed
ĠC our
t o
Ġtro ops
Ġpl aced
az ine
ĠSt ar
Ġqu ick
u le
Ġe ither
Ġresp ect
Ġoff ice
Ġcrit ics
ĠPres ident
Ġav ail
Ġv e
ant ic
ĠA le
Ġre ach
Ġex ample
Ġm ult
ĠV ir
Ġprof ess
Ġmater ial
ĠR ed
Ġrun s
Ġh on
Ġrec ogn
Ġe conom
ĠWash ington
Ġw ife
ul a
ĠQ ue
b e
a ut
if f
ar m
Ġest im
ear ch
Ġar my
Ġne g
Ġf oc
ĠR ou
esp ite
ch ie
o id
ent ial
i ol
Ġse x
re y
Ġs our
ĠO ther
Ġgener ally
eng th
Ġjoin ed
Ġ200 3
Ġc e
Ġm ass
Ġr ail
ĠH ol
quad ron
Ġpro per
Ġd ou
am a
ĠP aul
Ġcur rent
ill s
ĠPl ay
ic a
in o
ĠG ro
Ġev ents
ĠC ap
Ġrepres ent
ĠM il
Ġbelie ved
v ing
our n
ĠC up
Ġpartic ip
ĠRober t
Ġt er
ollow ing
Ġf ig
en es
ĠAng el
ĠC ro
ĠB el
ĠH all
Ġvict ory
Ġrepl aced
u ff
Ġdesign ed
Ġm ph
art ment
Ġr ul
Ġ3 5
Ġso on
Ġn omin
it ch
ict ion
Ġis land
e e
ĠA g
it te
Ġf und
ĠG ame
Ġhour s
o or
Ġem ploy
x ic
Ġ z
ĠG reat
Ġpres ident
er ous
Ġinvol ved
om s
Ã ¡
ĠTh om
Ġsur f
g o
Ġfin ished
al ed
Ġst ru
it or
ĠEurope an
ific ation
mer c
u el
ĠCh ampionship
in ist
as ion
Ġbre ak
w est
k y
ĠM ary
Ġsay ing
f all
ĠF irst
ap er
Ġh or
Ġcour t
Ġth reat
Ġsh ot
Ġopen ing
ĠL ou
Ġsc ore
Ġreg ular
ag o
em or
ke y
Ġdirect or
Ġl ength
Ġdes p
Ġind ic
Ġcon duct
Ġlar gest
Ġcont rib
ĠR oman
Ġposs ible
ecut ive
Ġhigh way
Ġmin utes
Ġun c
Ġs outhern
Ġd ro
v ille
B C
ar n
Ġex c
Ġhig hest
Ġl y
Ġ ill
Ġrem ov
Ġearl ier
ish ing
o f
Ġinit ially
and er
Ġh om
Ġavail able
Ġparticular ly
Ġper cent
ant ry
ann ed
Ġtr aining
ud e
Ġse qu
n ow
le g
Ġh ard
Ġ200 1
Ġfor ced
c o
Ġex ist
Ġ Ã
Ġm ust
c her
p ly
ĠAt l
ĠM art
ĠJ e
ĠRep ublic
Ġgr ad
in n
Ġcont r
ight s
z e
h ib
ĠÂ °
Ġp ark
ĠN avy
ĠS ome
ĠSc ott
id ing
ĠL a
ĠK e
Ġend ed
Ġresp ons
ĠKing dom
Ġqu ar
an ish
ograp hy
ĠRou te
as y
Ġturn ed
ri an
ate g
Ġsoc ial
ip p
ou l
Ġw all
ut ure
Ġstud io
ĠV al
if orn
Ġch ange
Ġl angu
ĠM al
ĠS ing
ĠD on
Ġpra ised
em s
Ġpass ed
Ġh y
Ġincre ased
Ġp iec
Ġob ject
Ġpr iv
Ġb ill
Ġh urricane
Ġed uc
Ġreg ard
Ġnort hern
at ural
he ast
ĠM et
ĠIntern ational
Ġke ep
Ġcent ral
ĠD ep
i ation
Ġp hys
Ġnov el
ĠW il
Ġ200 2
Ġrel ig
ĠCh urch
Ġappear ance
Ġun its
Ġspe ed
ers hip
ĠChar les
Ġsup er
Ġp ast
ĠCanad a
ĠM ac
Ġch urch
Ġst op
ĠM ag
Ġim medi
ĠCal iforn
ĠVir gin
end ed
ank s
ĠO ff
or ing
oc r
Ġord ered
Ġme as
Ġsy m
ĠThom as
augh ter
Ġdis p
ĠWh ite
Ġt reat
u ter
i os
Ġt aking
ĠB ut
fer ence
itte e
Ġl ove
Ġind epend
s el
Ġsign ed
ĠBro wn
Ġmov e
Ġqu est
and ing
ĠB ay
ĠS en
Ġa chie
st on
il ities
Ġbet ter
et work
ĠR ock
ĠCaliforn ia
re m
v al
d en
ak er
ĠR es
pp ed
Ġp ers
ĠMc C
ĠUn ion
am b
ar ily
ec ess
ap t
Ġwind s
Ġcom merc
Ġen ough
Ġpos itive
ĠB er
ag on
Ġin n
ĠIs land
Ġw at
iqu e
Ġacc ording
Ġsp ent
ear s
ĠSm ith
Ġh ous
Ġgo ing
r ated
r up
ĠCour t
Ġab ove
ĠP al
Ġout side
ell ed
Ġs low
Ġa p
Ġfilm s
um p
n el
Ġp ot
ĠG overn
k s
t r
Ġfe el
um e
Ġto ld
Ġfoot ball
Ġprevious ly
id s
Ġrecord ing
Ġst ates
Ġc lear
qu are
ĠT wo
Ġme an
ĠA ward
u ation
Ġn ine
ĠG od
Ġf ailed
Ġ199 0
Ġsub ject
Ġass ist
ĠI r
Ġcom e
ĠAle x
ĠRich ard
us ion
ĠAss oci
Ġrequ ired
ĠComp any
Ġp ur
Ġele ments
ĠS l
ĠC ong
Ġpro b
os ing
ren g
c om
al ion
Ġ6 0
Ġe y
Ġreview s
ed y
on st
Ġinter view
Ġc ru
ĠV ict
Ġl ower
Ġpart s
f or
Ġits elf
at in
Ġth ink
Ġ4 5
Ġp ay
Ġdirect ed
id a
op h
ĠInd ia
ĠM o
Ġn ar
Ġab s
ĠGerman y
Ġdesp ite
it z
Ġs il
Ġf low
Ġc red
Ġ esp
ĠS am
Ġcont ract
he m
and s
Ġdeb ut
Ġph ot
Ġr ain
ib ility
Ġ18 5
ĠÂ £
Ġ ?
ĠT imes
er ved
ĠChrist ian
read y
Ġacc ess
is l
Ġbegin ning
Ġgroup s
he t
ok e
Ġv iol
on na
ĠCol lege
Ġs ection
A s
am er
Ġbe g
Ġwh ose
as ons
Ġclaim ed
ĠSt ud
ow s
hest er
ĠC r
Ġask ed
ov iet
Ġintern ational
Ġl ines
Ġtrans fer
h ile
Ġr ap
n es
ĠU K
Ġc ou
Ġst reng
Ġg ive
ĠJ os
ĠA c
Ġsc reen
on se
ĠG old
air s
ri ef
Ġaddition al
ain t
Ġf uture
ab ility
Ġle ague
ĠW estern
Ġwh om
ĠS oviet
ĠM er
Ġk ey
ĠH ill
ĠP eter
Ġpo or
e al
ber g
m a
Ġg old
ĠAr t
ĠM ark
ĠA wards
ac ted
ĠMe xic
Ġintrodu ced
Ġtrav el
Ġb i
Ġfor t
Ġo p
ly ing
Ġpre m
Ġev idence
Ġse a
ĠD espite
Ġide a
Ġquick ly
Ġd on
ig an
ĠC ast
k i
an ia
Ġal ready
Ġcent er
Ġbr idge
ĠT om
Ġfre qu
ĠN Y
ĠFor ce
Ġele ction
Ġprodu ct
Ġocc up
ĠD an
Ġex cept
ĠP at
Ġde al
us p
at ory
Ġ197 0
ec ially
ĠTh at
Ġp il
ĠD em
Ġus ually
Ġarr ived
m ar
Ġmus ical
Ġw estern
and ed
Ġp en
ir th
Ġbl ock
Ġrad io
Ġ198 0
e um
l iam
Ġc ivil
ĠD o
ĠC oun
ar ing
ĠS oc
Ġ3 2
er gy
ul ly
Ġc al
Ġfem ale
Ġsomet imes
ĠBrit ain
Ġstud y
b ack
Ġresp onse
ĠGr and
Ġcy cl
Ġf ood
Ġm oney
Ġdec ision
Ġmag azine
Ġesp ecially
ĠFr ank
s hip
Ġiss ue
Ġen v
liam ent
ĠF ilm
Ġsurf ace
it es
Ġfl ood
Ġm ight
Ġl ab
Ġlit er
Ġcar ried
Ġshow s
Ġgu itar
Ġcommun ity
ĠH ot
ĠD ay
Ġestim ated
Ġconst ruct
ĠP ac
un t
Ġrem ain
ec k
Ġrem aining
Ġe astern
Ġmin or
Ġdefe ated
Ġdet erm
ĠCh ic
Ġappro x
Ġlar ger
in ent
Ġbecom ing
ess ion
Ġ199 9
ĠB en
ar ies
ĠVict or
Ġcomple te
Ġpol ice
Ġw ood
Ġsuggest ed
por ary
Ġmed ia
Ġpress ure
Ġent ered
Ġsh oot
Ġteam s
Ġcommerc ial
Ġl atter
Ġly ric
Ġmark et
Ġconsid er
Ġstud ents
er ve
Ġd oc
Ġsur round
if t
Ġinvest ig
Ġb rief
as c
Ġconc ern
Ġperson al
b our
ĠR ob
Ġ3 6
Ġl o
Ġpr ison
Ġc ertain
ul f
ĠL os
Ġdisc uss
Ġ8 0
ĠM ount
in ct
Ġac qu
Ġeffect s
en a
Ġcomple t
Ġappoin ted
ĠVirgin ia
Ġb ur
Ġh op
Ġepis odes
Ġsum mer
eder al
Ġpri or
all ed
g en
ac ing
inc ip
ch ange
ĠFr anc
Ġd er
Ġs ize
ent h
Ġst aff
Ġe mer
Ġchang es
is es
Ġcomm ission
Ġs at
an ced
Ġwin ning
ly mp
Ġlim ited
Ġt ar
ĠM ill
Ġsc enes
ĠF rom
im ate
Ġle aving
Ġdestroy ed
Ġfle et
Ġr iver
ul ated
ĠSec ond
s y
ĠTe x
ĠO lymp
Ġd raw
p ris
ĠIn f
Ġs elf
ĠCl ub
Ġright s
ĠB ur
Ġd en
Ġwrit er
Ġprov ide
ourn al
ig ade
id ents
Ġpol ic
Ġf ail
ĠFl or
i res
Ġd ate
ĠF le
ve y
Ġter rit
Ġprop osed
ens ion
Ġinflu ence
Ġg irl
Ġt rib
ĠSp anish
ĠJack son
Ġover all
ĠPart y
ĠE v
Ġarr ang
ĠLou is
est s
Ġstruct ure
Ġtrans port
s u
N A
is er
t ies
y r
Ġ7 5
Ġt ax
Ġequ ip
t t
Ġ196 0
Ġ18 4
Ġd ivision
Ġk il
Ġsc ript
ines e
ir al
Ġagre ed
Ġ3 00
Ġro om
A F
ĠAssoci ation
Ġin tended
Ġrun ning
Ġant i
Ġtyp e
I I
Ġj ud
Ġd aughter
Ġb ow
Ġbroad cast
Ġnear ly
Ġp urch
Ġsupport ed
end ing
Ġb ig
Ġde ep
Ġres earch
Ġw ide
Ġestab lish
Ġhel ped
im um
at ives
Ġmar ried
ĠChic ago
Ġmov ement
ĠI m
Ġaward ed
ad ed
ĠCoun cil
l o
Ġl ay
ĠL ater
Ġmult ip
S t
ore s
Ġ199 8
r d
Ġcre ate
Ġfav or
Ġdis play
Ġint ens
at ively
ĠJ ust
ĠG reen
ĠCh inese
e x
il es
Ġd i
Ġb ird
Ġd ark
Ġs usp
h a
Ġdis s
Ġst ars
te en
ĠAd m
g a
qu e
Ġlong er
Ġlangu age
Ġhig her
Ġpl anned
Ġcomp ared
Ġcapt ured
d le
Ġincre asing
s en
Ġf ans
Ġst ay
ĠD u
Ġconc lud
Ġcour se
Ġchang ed
sel ves
Ġexper ience
Ġapprox imately
Ġrel ated
ĠI f
Ġd one
Ġfeat ure
Ġfif th
Ġl iving
Ġc at
Ġthem selves
ĠS ong
om er
t ained
ound s
ron ic
Ġprodu cer
ent y
b ers
Ġtem per
Ġtrack s
Ġmost ly
ĠEd ward
Ġsp ace
ĠK ore
ĠHist ory
ĠEar ly
Ġwith d
is ions
ĠE mp
ab it
b urg
ĠPac ific
Ġth us
ĠEn ter
ĠO per
Ġ7 0
ĠIt al
ĠU p
Ġw oman
Ġ3 3
Ġoper ations
ĠO ver
Ġde ad
Ġrem ains
ĠBill board
ĠR o
T h
Ġp aren
Ġquar ter
Ġ -
Ġbr ing
ol ic
Ġo ur
Ġn atural
ĠS erv
th ing
um n
Ġwhe ther
Ġim m
Ġwe ap
Ġprob ably
Ġsold iers
Ġcon cept
Ġd ram
and on
c he
Ġcop ies
Ġ ult
im in
Ġbuild ings
Ġlead er
Ġv oice
Ġex tended
Ġsy n
Ġf ace
Ġlyric s
Ġfor ward
c an
Ġdep art
Ġb oy
oin t
Ġcomple x
Ġbo ard
Ġre act
Ġiss ued
ĠAtl antic
Ġbatt les
Ġch all
i ant
ri age
Ġre ally
Ġcount ries
Ġhe av
ir ing
Ġ199 7
Ġsuff ered
v in
osp ital
Ġc m
Ġgo als
A l
Ġinclud es
ĠSc ot
Ġimmedi ately
ra z
ĠJohn son
Ġat tend
am s
i en
Ġde g
ĠL ake
Ġbre ed
Ġmanag er
Ġmix ed
Ġpriv ate
Ġcap ital
ĠS al
n y
ĠK h
Ġoffic ers
ĠCong ress
Ġlik ely
ĠM ont
Ġem b
h ood
ĠCon t
ĠL ove
Ġdist rib
ĠS un
Ġ3 7
le br
ep h
ĠFlor ida
Ġcan n
Ġremov ed
ut h
Ġinit ial
D uring
Ġincre ase
Ġpl ant
ĠJ ew
Ġm ach
ĠL it
ĠB ack
ven ue
Ġhe alth
Ġsubsequ ently
Ġle ave
Ġpl ans
Ġal ways
u z
ib r
Ġfoc us
Ġserv ices
Ġn etwork
Ġstat us
h old
Ġv ia
Ġc oin
Ġm ount
ur t
ect ions
Ġcomp an
Ġloc ation
Ġvis it
ĠM ost
Ã Ń
ĠF inal
b ury
ord er
Ġproble ms
ri al
Ġoff ered
ĠQue en
ĠT own
ĠSe a
ĠIn ter
Ġinst r
Ġfl ag
Ġterm s
ĠF ort
Ġmod el
ĠTex as
Ġn orm
ct or
ĠCh ina
Ġappro ach
ĠB ig
ail y
ĠA pp
Ġcol on
Ġvill age
Ġsomet hing
ĠD ist
Ġadm inist
Ġt ons
g ing
Ġf ell
Ġcar ry
oun ted
Ġm ur
ĠF ollowing
Ġmajor ity
iron ment
ri a
Ġprofess ional
Ġto w
ĠO ld
ĠEar th
A t
ous ly
Ġ18 3
ar i
Ġmet h
Ġt or
ad ium
Ġg ot
Ġc ause
ograp h
ĠAfric a
Ġcons ist
il i
ur ies
ĠL ord
Ġdam aged
Ġinter s
w ell
Ġmeet ing
st ant
Ġappear s
ĠL aw
ĠR ail
Ġj ob
Ġcoun ter
Ġconf ir
Ġmin ute
et ic
ac hes
Ġad op
ĠC amp
ĠCanad ian
Ġrank ed
Ġr an
ro l
ĠM r
ĠJ im
Ġcomp osed
Ġindivid ual
Ġreve aled
y s
ĠS quadron
Ġattack s
ĠCent er
Ġfl ight
ĠP ri
it ect
re ater
Ġs ch
Ġpl ot
Ġdiscover ed
Ġra ised
ĠT our
w are
ĠK n
ĠT or
Ġrespect ively
Ġfin anc
um ed
Ġm akes
if y
ĠB oy
ĠRuss ian
i j
o es
Ġnum erous
Ġassoci ated
ĠTr ans
ĠI ts
Ġt akes
ĠAngel es
Ġal tern
re ak
ĠH ow
Ġneed ed
Ġinsp ired
ag ing
Ġd omin
Ġl ived
m on
Ġ199 5
ĠII I
ĠHigh way
ol k
Ġlaun ched
Ġy et
Ġan c
ĠW ood
Ġn ature
Ġ9 0
l or
ĠCar ol
ri ption
Ġoccur red
ĠP et
Ġcont ains
ĠT ur
ĠCent ral
Ġve hic
ĠK ent
Ġco ach
Ġsh own
Ġc and
Ġb ene
ail s
Ġattempt ed
est ival
Ġattack ed
Ġp ow
Ġmov ing
Ġcond itions
um ents
f act
Ġup per
u als
a ult
Ġam b
Ġs ales
Ġd ig
Ġacc omp
ect ive
Ġcol lect
j oy
ĠD V
ĠY ear
ar ian
d own
Ġiss ues
it t
d e
augh t
Ġb irth
g ely
Ġwho le
Ġ201 6
Ġinform ation
Ġ195 0
Ġex am
Ġy ards
Ã ¶
Ġsl ight
Ġ3 4
ĠT V
ĠMart in
Ġ199 6
Ġrefer red
ur ity
Ġbo x
Ġcrit ical
Ġm om
u ing
Ġ3 8
Ã ¼
ĠG reek
ĠEmp ire
Ġnum bers
Ġfin ally
Ġinc or
Ġsmall er
o e
ĠB ow
Ġelect ed
Ġse lected
Ġresul ted
ce an
Ġdefe at
re me
ĠM ur
ĠGro up
Ġgr ant
Ġsc ient
Ġport ray
ver t
ĠAn t
Ġact ive
ri e
w in
Ġqu al
Ġsing er
Ġs en
Ġb ad
Ġpr incip
ĠR h
Ġstand ard
i est
Ġsec ret
Ġce lebr
Ġm ission
Ġindust ry
u ated
Ġs al
Ġlar gely
Ġgr and
Ġoper ation
ĠO l
ort un
ĠRe v
en ant
Ġp it
im b
it ation
Ġass igned
Ġl ink
Ġc er
ĠM iss
Ġen s
Ġear ned
Ġs af
ĠS ir
Ġan aly
Ġ199 4
Ġleg isl
Ġcomment ed
Ġth r
Ġexp ected
Ġan g
ĠItal ian
Ġm ale
ĠM el
Ġpre c
ĠCor ps
st e
k en
it ude
Ġlist ed
Ġaud ience
Ġro y
ll ed
Ġcover ed
ĠB et
Ġart ic
iz ing
Ġun able
Ġpur p
Ġsc hed
Ġtradition al
ĠDV D
Ġeduc ation
ire ction
Ġtr ade
Ġart ist
Ġfriend s
Ġ i
Ġnew sp
Ġhe art
Ġdou ble
Ġcl osed
Ġref used
ĠB oth
Ġs em
Ġunder st
Ġatt ention
Ġrec over
Ġprim ary
Ġmeth od
oun ts
Ġrequ est
Ġs ister
ain e
Ġprev ent
ĠSt r
Ġk ind
Ġt alk
og ue
ĠR ad
ĠP enn
on ic
Ġre ason
ĠV iet
igh ter
Ġlet ter
Ġoffic er
Ġbel ow
Ġcont em
Ġen joy
ĠN ot
Ġ194 0
o ly
Ġab ility
Ġdep ression
Ġme ant
ĠSup er
Ġperform ances
k in
Ġdecl ared
Ġpl at
hip s
pl es
Ġw alk
er ry
ĠD es
Ġg iving
ou d
und red
Ġw ord
Ġfight ing
ĠW ales
is her
Ġbl ood
Ġcommand er
Ġrelig ious
Ġcomp l
Ġbook s
us e
ter ed
Ġthe at
Ġmid dle
id er
ĠC am
Ġset t
Ġr ate
Ġ18 0
ĠM any
Ġm ax
Ġh ot
Ġrecord s
ĠMich igan
il ed
ĠD el
Ġ4 9
Ġmat ches
Ġn ames
ĠC ath
Ġconst it
Ġprodu ce
Ġquest ion
ap ed
ĠDem ocr
ĠN ort
Ġcompet ition
ĠO ut
ant asy
Ġser ious
Ġcent re
Ġun it
Ġvoc als
ut ch
ĠG ar
Ġdis app
ever al
br idge
Ġto uch
Ġm ention
od ies
ĠMin ister
ĠZ eal
ĠT est
i ences
ro ad
Ġacc ount
ound ed
Ġab andon
ĠAc ad
Ġrap id
ic ted
Ġen ergy
Ġn ecess
sh ire
ĠM ass
ĠD is
ad y
Ġ199 2
ect or
Ġkil omet
ic ient
im s
qu ar
Ġd ra
erv ation
Ġconstruct ed
Ġd ut
Ġtr aff
ĠTe am
ir t
en ing
on a
Ġthem e
ru g
Ġr is
ech an
ĠC are
Ġroy al
Ġnear by
Ġhigh ly
Ġp ick
ish op
ĠZeal and
Ġsepar ate
Ġtr ain
os es
Ġh ar
Ġcontin ue
Ġ4 1
ed ic
ĠM idd
Ġch ief
Ġeff ort
Ġpres ented
a res
Ġcomb at
ri er
Ġpre p
Ġdr um
Ġpos itions
ĠC le
Ġredu ced
Ġann ual
Ġcontro vers
Ġdirect ly
ĠMexic o
ans ion
ie ut
Ġlevel s
Ġt ur
s is
Ġme ans
ĠAfric an
ib ly
Ġnot es
Ġat tended
Ġ4 00
Ġ193 0
Ġc as
Ġne igh
Ġt ried
Ġse vent
Ġpract ice
ĠL u
Ġfore st
Ġcomp os
Ġc le
ĠO x
emor ial
et her
Ġed ition
ĠT ime
an es
Ã ³
ĠL ong
ĠF ore
Ġf ast
ĠSt ep
Ġtw enty
ĠU nder
Ġaccept ed
Ġn uc
ĠE r
v ement
et te
Ġst ating
Ġmet al
op er
Ġmov ie
Ġarch itect
Ġw atch
o o
Ġte xt
ĠF ox
ĠCh art
c el
Ġrep e
Ġcand id
r ical
Ġconc ert
Ġadv ance
Ġ199 1
Ġ199 3
tr ack
stit ute
Ġre in
Ġp air
ac her
ĠH aw
os en
ĠAr ch
Ġd irection
ad o
ĠB u
ers ey
Ġ17 9
Ġse em
Ġschool s
Ġleg al
Ġdis m
Ġre ject
ĠC ons
Ġr are
p ing
l ict
ĠAn other
an i
Ġ5 5
l ight
ĠP re
a ver
ĠS um
Ġmar riage
Ġth ick
ĠW al
w ide
Ġrec omm
Ġo il
Ġhor se
ill ery
ew ay
Ġman aged
Ġeff orts
Ġas p
Ġcol lege
ĠDep artment
ĠM ajor
Ġ +
ĠScot land
Ġp urs
ic ip
Ġend ing
Ġresult ing
Ġav oid
Ġw ing
ieut enant
ĠM ore
ĠW all
ut ions
Ġshow ed
Ġdro pped
Ġrespons ible
Ġins ide
ĠC reek
Ġn ation
in em
Ġc ases
Ġke pt
ĠJ ones
Ġenv ironment
ap h
ĠInf antry
ir it
Ġc ust
Ġ18 2
Ġcult ure
Ġmean ing
Ġcycl one
b and
h ouse
ĠMad onna
Ġbeg ins
Ġincor por
ill ed
Ġvar iety
ĠAr ab
Ġmor ning
Ġr at
u it
ceed ed
M S
a wn
Ġhous es
Ġcer em
Ġform s
is ation
Ġd om
Ġch ampionship
Ġ3 9
Ġw ords
Ġar rest
ĠCh ris
per or
Ġy ard
l ike
ĠC ross
Ġsch ol
Ġg e
Ġinc hes
Ġmark ed
ĠB ost
Ġcontin ues
ĠS o
ĠM anc
Ġsc ience
ĠT re
ĠB ob
ĠK enn
ĠM att
Ġ4 8
Ġper m
Ġsym b
Ġ18 1
ĠH ung
ĠRec ords
ĠC rit
ce nd
Ġus es
Ġb ank
Ġeconom ic
ect ing
ĠD ar
gy pt
Ġsp l
Ġsour ce
ĠB C
ĠSec ret
k a
Ġqu ality
i ated
Ġ4 2
Ġdef end
w rit
ĠThe ir
ĠServ ice
t hel
ol f
ĠWilliam s
Ġh undred
Ġle ar
ĠSt one
ĠPar liament
Ġset tle
ĠLe g
ul ations
Ġconduct ed
Ġstart ing
Ġimp act
yl v
c le
Ġy our
Ġspec ific
Ġstru gg
Ġallow ing
ĠG ames
th ur
ĠP ost
ĠAn n
Ġpres ence
ĠSoc iety
Ġ194 2
ĠS ar
Ġam ount
b ed
Ġp le
Ġbe at
A n
Ġview ers
Ġd u
Ġs ides
a it
Ġmet res
e en
ĠF our
Ġd ance
Ġr ule
Ġch ap
Ġex hib
ĠE gypt
Ġun ivers
Ġsup pl
Ġdist inct
ĠH el
Ġtransfer red
Ġmultip le
Ġr aid
ro wn
Ġpot ential
ĠNew s
ĠD ou
ĠF oot
Ġfore ign
Ġcontr ast
Ġpeak ed
ir m
ol s
Ġen emy
ing u
Ġbecom es
Ġcapt ain
ĠComm ittee
Ġtraff ic
it iz
aren t
Ġown ed
Ġth ings
Ġfound ed
Ġg reater
ĠB ook
Ġm ess
ĠL atin
g l
Ġconclud ed
Ġport ion
Ġvoc al
Ġsc oring
Ġcast le
ĠS outhern
Ġresp ond
Ġproper ty
Ġst ories
sy ch
Ġattempt s
Ġ6 5
Ġenc oun
Ġo pt
ĠS ince
Ġrel atively
ĠSt an
ĠG o
Ġprim arily
ian ce
Ġdem onst
in et
ĠPr ince
ec ause
Ġf ederal
Ġfinanc ial
ĠS ur
Ġact ually
Ġanim als
ĠAr m
ress ive
Ġobs erved
ĠBost on
ĠM ic
Ġcol lection
f ect
ell ig
Ġopp ortun
Ġtit led
ĠO h
Ġto urn
ĠT ri
Ġfeat uring
Ġl if
i h
it a
Ġwrit ers
ĠW in
ist ics
Ġ4 7
Ġwrit e
a ud
Ġj ournal
ĠCh ief
ĠAdm iral
Ġ194 4
Ġstreng th
our s
Ġwe aken
ĠGeor g
ĠViet n
Ġin ch
Ġw or
ĠC he
ĠV er
Ġsit uation
Ġdist ance
Ġsp ot
Ġp aid
Ġprem i
Ġm echan
Ġparen ts
r ight
ĠBr idge
ĠSw ed
Ġindepend ent
Ġfig ure
ĠOx ford
ĠBatt alion
um ber
Ġsh are
Ġact ing
Ġact or
Ġcompan ies
Ġdiv ided
ed s
ĠComm ission
Ġon to
al le
ĠS at
Ä ĩ
Ġcoll abor
ĠManc hester
Ġm ind
Ġslight ly
Ġtar get
Ġpiec e
ĠCl ass
ad a
Ġfun ction
Ġs elling
Ġ5 2
ĠO tt
per ial
Ġpower ful
Ġre form
rick et
ĠPar is
Ġ4 6
Ġinn ings
Ġr ating
Ġconc ent
Ġ6 4
Ġtor ped
Ġplay s
th let
Ġl ot
Ġbro ke
Ġto day
Ġro ugh
Ġer a
c hest
Ġact ions
ĠF in
Ġult imately
l am
Ġwat ers
or ation
Ġm el
Ġtri al
Ġch o
ĠStep hen
Ġs quare
Ġmax imum
in ing
ist ry
Ġdis e
ĠSp ec
ro s
ĠJe ff
ĠD en
ud d
ĠS ol
u ge
Ġte nd
Ġpil ot
Ġb ound
ĠL ife
ĠCap tain
ann el
ĠB BC
ast ic
Ġ4 3
ĠCol umb
Ġcomplet ely
ĠBr ad
Ġs ought
ĠJos eph
ac ts
Ġinter p
Ġpolic y
ĠH or
ĠAcad emy
s w
Ġ192 0
Ġsc ale
Ġ194 5
ĠHar rison
ann a
Ġbl ue
Ġsoc iety
for ce
Ġmain ly
ĠDe f
Ġbeh av
ĠEnter tain
rup t
Ġdesign ated
Ġh us
ĠS il
l oad
Ġ ess
Ġ194 1
Ġ4 4
re l
Ġofficial s
ĠCro at
Ġl og
Ġstru ck
m as
Ġcon ver
m ond
ĠMus eum
Ġactiv ity
ste in
Ġinflu enced
Ġcomb ined
Ġtrans l
Ġt ask
ĠSer ies
c ers
Ġw ear
ol ved
Ġse arch
ĠP an
w hile
il s
Ġv ess
Ġth ous
ĠL ine
Ġcall ing
p e
Ġg ar
Ġ15 0
Ġalong side
Ġnort heast
ĠF red
Ġsecond s
Ġb atter
y a
ĠBr igade
u x
ĠB at
Ġs out
Ġsour ces
Ġwin ter
ĠAmeric ans
ors es
und er
Ġback ground
Ġwe bs
ĠCar l
ĠT w
ĠIt aly
av en
Ġthe ory
Ġse g
ĠW ay
m ark
Ġ ice
ag a
Ġrec ent
Ġg ained
Ġsu c
in i
Ġnomin ated
r ative
ĠS aint
Ġth ir
Ġc row
Ġplat form
ĠY oun
Ġelect ric
ĠT im
Ġart ists
Ġproble m
Ġm em
ĠL uc
Ġenc our
ĠEntertain ment
Ġwid ely
Ġn aval
Ġsystem s
Ġpromot ed
ĠReg iment
quar ters
ĠTh ree
Ġconfir med
n own
ĠI re
ian o
Ġnew s
ill a
Ġreach ing
ĠE ver
Ġpro ved
Ġresul ts
ĠA venue
H L
os aur
Ġpass ing
ibr ary
Ġalbum s
r ate
ad el
Ġexpl ained
Ġsubsequ ent
Ġgreat est
ĠF orm
Ġconf lict
ĠLit tle
ĠIre land
Ġinv asion
ot a
Ġcont ent
ĠFle et
Ġw ick
ĠP op
Ġcom ing
Ġchar ge
Ġpe ace
Ġsix th
Ġres ist
Ġhe ro
Ġnorth west
on n
Ġcount y
ub e
Ġc orn
Ġshort ly
Ġwe ather
ĠG re
Ġvers ions
Ġ194 3
Ġad j
ou red
Ġser ve
Ġcaus ing
ĠCon f
Ġ198 9
T V
Ġsay s
ĠLe e
Ġsu st
y ond
Ġexp ressed
Ġp ath
al ing
Ġrece ption
Ġse ek
Ġb urn
Ġ ir
it ness
ic ed
Ġres idents
Ġb order
Ġem ot
Ġsound track
Ġc ities
Ġs n
ĠCath olic
Ġse asons
Ġappear ances
Ġfav our
Ġs ense
ateg ory
om y
ĠVal ley
y m
Ġsex ual
ĠW ind
Ġrequ ire
Ġche m
Ġh ospital
t own
Ġg reen
ĠV an
Ġident ified
Ġphys ical
ĠT er
Ġold er
ĠH urricane
ot e
anc y
ip s
Ġhand s
ĠVictor ia
ĠM od
ĠG ood
Ġt ells
Ġ5 1
Ġoff er
Ġtr ue
Ġdoc ument
Ġd edic
b it
Ġk g
igh th
Ġ iron
er o
Ġart illery
Ġrepres ented
ĠM ax
Ġweap ons
ard en
b on
Ġa head
un ction
e ption
it an
y on
Ġneg ot
Ġg as
ylv ania
Ġheav ily
Ġe as
Ġp un
ĠL iber
z a
ĠH al
Ġsup p
ab eth
ĠE ll
ĠN in
Ġdef ense
it able
Ġstud ent
ĠS ant
Ġim age
ĠN orm
Ġsp read
Ġal one
Ġapp arent
Ġstud ies
Ġoffic ially
ĠL ight
ĠSh ow
ĠMidd le
Ġhus band
ĠComm un
A S
Ġex ecutive
Ġdist rict
Ġfar m
ĠDe v
ĠWe ek
ĠD utch
ess ions
Ġinst it
Ġdeb uted
ĠChar l
Ġprom inent
ĠR ay
Ġcapt ure
ĠAl b
ĠB us
Ġcons isted
Ġfl oor
ĠPro du
Ġinj ury
Ġw ild
Ġse nd
Ġp ack
Ġequip ment
Ġorgan ization
Ġf ired
Ġb it
ĠL ive
Ġst one
Ġpat tern
Ġarg ued
Ġa ired
Ġres c
A A
Ġfig ures
ol t
Ġpre par
Ġsur pris
Ġinstr ument
Ġexp ed
Ġgrow th
Ġcou ple
ac ity
Ġdo ing
Ġreturn ing
B y
Ġcontem porary
p ool
ĠT op
Ġp ict
oc key
ĠHist or
Ġh un
us hed
ĠL o
Ġpo et
Ġr ing
Ġp al
Ġwe ight
urb an
Ġc ert
Ġd rug
Ġl aid
Ġlead ers
ĠA ut
Ġdou b
Ġaff ected
W hen
ĠM a
Ġmat ter
Ġpiec es
b ur
Ġh abit
Ġmag n
ĠF ar
el d
l ines
l ers
Ġst ep
Ġe th
Ġmain tained
Ġprop os
ĠAl bert
ĠC ivil
res p
Ġear th
he w
ro g
ap pen
Ġocc asion
Ġvis ited
ĠT od
ĠW ork
Ġt un
ĠI ll
Ġr ang
ĠT ay
Ġcom es
Ġcommun ic
Ġhe re
Ġshe ll
Ġspe ech
Ġcritic ized
Ġcrow d
Ġ6 00
port s
Ġactiv ities
Ġterm in
Ġst ra
e es
ĠNort hern
ĠYoun g
ĠCarol ina
ĠFoot ball
ent al
in son
Ġatt ract
ĠT y
ĠEl iz
ac ement
Ġex ec
ĠD un
Ġc itiz
if ying
Ġtourn ament
Ġre ign
Ġto ward
Ġsing les
Ġem ph
Ġh all
ĠJ ul
Ġo x
em ic
Ġtre es
Ġrefer ence
Ġform ation
ock ed
Ġsen ior
ĠSt orm
Ġset ting
el ve
ĠB ond
Ġad apt
ed d
ĠK r
Ġsur re
Ġterrit ory
Ġworld wide
Ġmed ical
ĠA v
ĠD irect
Ġtr ying
ĠH omer
Å į
Ġ unk
Ġst ations
Ġb ud
ĠS everal
Ġapp l
ru it
Ġbird s
est ic
Ġp an
Ġ198 7
Ġdel ay
n ers
Ġmach ine
Ġf ellow
al a
Ġclaim s
i ro
Ġd oll
ĠF antasy
ĠAd d
Ġmur der
emb ly
Ġhistor ian
ĠR y
Ġgu est
ĠF re
ĠSy stem
ĠDist rict
e ed
Ġb ul
Ġrain fall
Ġris k
ĠGovern ment
Ġd og
Ġf ully
Ġacc ident
Ġc ell
Ġval ue
Ġ198 8
Ġl oad
iv ity
Ġthere fore
g ian
ul ed
Ġspl it
Ġch osen
Ġtreat ment
Ġun iversity
ĠT ropical
ĠR am
om ers
ĠBack ground
Ġg od
ĠScott ish
ĠHol ly
ĠD am
Ġtw ice
ĠM en
Ġ5 3
velop ment
Ġt err
Ġfrequ ently
Ġsup ply
Ġcont est
ul s
ĠStud ios
Ġreport s
ĠGu ard
st one
ĠOr ig
Ġle aves
ra el
res h
u ct
Ġgovern or
Ġs ens
Ġrem ark
ĠD i
Ġp aper
ĠGovern or
av ed
stit ution
Ġlab el
Ġf aced
amp ion
ĠPol ish
ord in
Ġag g
ĠSen ate
Ġd yn
i Äĩ
r or
Ġwall s
Ġop in
Ġfollow s
Ġhy d
Ġbill ion
ang er
ĠDu ke
ĠPenn s
led ge
Ġoper ated
Ġg rew
ĠG irl
Ġman u
ĠR og
ay er
Ġsurround ing
ĠH ome
ĠF ield
ĠM at
Ġcont ained
Ġdeg ree
on ents
Ġher self
Ġ8 5
Ġcond ition
ĠE astern
Ġh orses
Ġplan et
Ġmanu fact
ĠDan iel
Ġaccomp an
Ġw ounded
Ġtyp ically
Ġesc ape
Ġ ut
Ġs we
ag n
ĠMar sh
am ber
Ġpass es
il ly
ell er
re ct
ĠCol on
Ġsim ply
ĠChrist mas
Ġcol or
ĠS k
or ter
isc o
Ġm aster
ĠBe at
ĠH ard
Ġf uel
ĠB ecause
Ġbro wn
Ġs le
Ġrail way
Ġele ment
Ġd raft
ut ation
ĠL ike
ge nd
Ġl ives
et y
ĠR om
Ġed itor
Ġord ers
Ġar ms
ĠT em
ĠB re
ĠAll ied
r id
ant ly
Ġserv ing
Ġb al
Ġnot hing
Ġauthor ity
Ġch ose
Ġopp osed
Ġwork ers
Ġvot e
Ġcons ecutive
Ġc amer
Ġcann ot
is ters
Ġmom ent
Ġnew ly
p ass
ric ult
iz es
Ġn ative
ĠN ight
Ġunk nown
anc ing
Ġparticip ated
ĠS ub
Ġgrow ing
uck y
Ġwebs ite
i as
am ing
Ġcas ual
ĠL ew
Ġ198 6
Ġemph as
u ous
Ġent r
Ġph il
Ġatt rib
ig g
Ġf an
Ġprodu cers
ĠG al
ful ly
ĠJ on
Ġre ar
ad ing
ĠR os
ĠK ar
Ġ5 4
ograp her
Ġb ass
Ġf air
ĠOper ation
m it
Ġl osing
Ġadop ted
Ġadv anced
Ġfilm ing
Ġext ra
Ġhe ard
en ge
ĠF estival
Ġsever e
Ġoff ensive
Ġfe ed
il ies
ĠO s
Ġf iction
and y
az z
Ġopp osition
im ens
Ġex tend
Ġsp irit
ĠCast le
ĠR od
Ġcap acity
en ger
Ġbas is
Ġsequ ence
Ġact ors
ĠIs lands
Ġcoun cil
ĠC orn
Ġp sych
Ġ9 5
Ġgu ard
Ġend s
pt on
Ġnewsp aper
i ot
Ġwe ak
Ġs quadron
g u
yp e
Ġadv ant
Ġsil ver
Ġpr in
Ġabandon ed
ĠB art
Ġ5 6
r ong
ĠWil son
ors hip
ĠTay lor
Ġcomp ar
Ġr ival
Ġ rom
Ġ17 7
Ġprom pt
Ġext r
ĠPenns ylvania
F A
Ġf lying
ab les
Ġk ick
ĠEliz abeth
Ġhon or
m ore
is ers
Ġele v
Ġcreat ing
ĠP ers
ĠJ ud
oc ated
ĠIr ish
le ment
ĠS ound
ĠP en
Ġfilm ed
ag er
Ġlaun ch
Ġco al
Ġregard ed
ĠAnd rew
ĠJ ersey
Ġh appen
ĠRec eption
ĠO cean
Ġexp ansion
Ġnorm al
Ġa st
Ġent er
Ġcritic ism
ĠJo e
Ġindivid uals
ĠAlex ander
Ġhom es
Ġagre ement
Ġbe yond
ĠEx p
Ġinc ident
ad d
Ġfail ure
Ġde ploy
Ġsp ect
Ġev ac
Ġ17 8
Ġdism iss
ap ers
Ġfam ous
Ġey e
Ġch air
Ġsp ring
an o
ĠT ech
ĠJ ac
T C
Ġs ail
Ġsp orts
Ġmeas ure
us es
ĠSp ain
Ġchall eng
Al though
t ar
g ar
m in
Ġposs ibly
and a
Ġhistor ical
Ġneg ative
Ġ9 7
ĠCo ast
Ġl iber
Ġin te
Ġ193 9
Ġbo at
ĠM ike
Ġb odies
Ġachie ved
ĠBl ue
Ġstri ke
Ġbelie ve
Ġcont act
2 0
ĠC ard
Ġm ob
ĠS quare
Ġprog ress
Ġro les
B A
Ġun f
r ich
um an
Ġkill ing
Ġ7 6
Ġnar row
Ġret ired
im et
Ġide as
ĠG all
ĠT ra
ific ations
ĠD et
i enced
Ġdr ive
Ġdise ase
ĠIn stitute
ĠA re
Ġ ur
ĠM D
ĠS S
Ġtorped o
m osp
on ent
Ġbene f
Ġr id
Ġbrief ly
Ġv o
Ġeffect ive
Ġim ag
Ġar med
Ġtow er
Ġapp lic
ĠIn st
ĠW at
Ġbud get
Ġd iam
Ġrece ive
Ġrepe ated
Ġadminist ration
Ġgrant ed
Ġnecess ary
ĠL and
Ġper man
Ġperson nel
Ġt ree
Ġ196 8
ĠRev olution
Ġroad s
Ġreject ed
an while
ed om
e v
Ġt able
ab y
Ġtw elve
a ith
Ġkilomet res
Ġpol l
ĠW W
in er
Ġp et
ĠIs rael
Ġimpro ved
Ġlead ership
Ġ198 5
ĠG erm
Ġgro ss
Ġm is
ĠBro ad
Ġinter change
aval ry
ĠRepublic an
Ġext ensive
l a
Ġcol umn
Ġin h
Ġd ata
k ins
Ġy ellow
im al
ĠHar ry
our ney
Ġinf antry
Ġturn s
Ġpl ants
Ġpurp ose
Ġstra ight
Ġ6 6
Ġmanag ement
Ġland s
ĠB or
Ġexp ress
im ents
Ġland ing
Ġdef in
Ġpar alle
ĠDo ctor
Ġdescrib es
ĠC at
Ġexp anded
Ġse at
Ġsol o
Ġfr anch
Ġsuccessful ly
Ġch oice
Ġbro ken
Ġm ile
ĠS und
ĠBo ard
l usion
in y
Ġcross ing
Ġle arn
ock s
ĠF am
adel ph
Ġdid n
c Ã©
ĠAl bum
Ġ6 1
Ġf ought
ol n
Ġdel iver
Ġint ellig
ĠWh at
Ġexpl os
er c
ĠC D
Ġanim al
Ġorgan ized
Ġc aught
F ollowing
Ġex cl
u ate
ĠC ub
ĠB ul
ĠW ild
Ġvehic les
ĠSecret ary
Ġcommission ed
Ġsuggest s
ĠL ind
ĠTh ough
Ġacqu ired
h aps
Ġ8 00
ĠPhil adelph
Ġpl aces
Ġcomm ittee
Ġch or
ĠP ublic
et ball
Ġro of
Ġanc ient
att le
Ġdram a
id ay
ĠE nd
Ġcre ation
s et
Ġ198 4
ĠOh io
Ġtyp es
st ream
Ġg ives
Ġgl ob
Ġartic le
ĠB raz
Ġcom edy
Ġsevent h
ĠAr thur
ic o
ian a
Ġun su
Ġro w
Ġnuc lear
Ġpre fer
ĠM ul
ĠCl ark
i able
Ġw ave
Ġso ft
ĠBe fore
i ate
Ġf at
h i
app y
ĠPhiladelph ia
Ġauthor ities
et ts
Ġ12 0
Ġhead quarters
w ar
um es
Ġcont ain
ĠM id
Ġcent uries
Ġcommon ly
Ġdeterm ined
Ġis lands
Ġgen us
ĠW rit
i ations
Ġmention ed
Ġrec ently
A r
ri f
ĠE lect
Ġlook ing
Ġb ott
ĠR et
Ġcontro lled
ig r
ĠI S
Ġbe aut
ĠR A
Ġ196 7
rest ling
Ġst reet
ak ers
Ġro ll
Ġset s
Ġfam ilies
ĠGeorg ia
Ġhouse hold
Ġsec urity
iver pool
Ġup gr
art s
Ġfind s
Ġexper iment
ot ed
Ġa im
ĠHe ad
Ġsup por
ur a
ĠW ars
Ġstand ing
Ġad vert
Ġdec re
Ġd rop
im a
The re
tend o
ĠU s
Ġ5 7
Ġac ad
Ġill ust
ĠF urther
ĠRuss ia
Ġsing ing
Ġwithd raw
ol es
Ġbatt alion
ĠL es
Ġun ique
Ġref lect
it led
ut ing
ĠU l
r ig
ag ement
Ã ¨
Ġcont aining
Ġentire ly
Ġcult ural
Ġhe ight
ĠH it
Ġdec k
ĠM ov
f ort
Ġd ial
Ġor chest
Ġf ish
ĠCam bridge
ĠM ir
ĠB ell
Ġfin ish
Ġtouch down
inc oln
Ġcontrib uted
Ġprot ect
Ġthem es
ĠE ach
is hes
Ġprov ides
Ġyoun ger
om a
Ġdef ence
ĠS her
ĠAs h
ĠB urn
Ġflood ing
Ġun p
ack s
ĠAs ia
Ġm ist
ĠJ er
ĠPr ime
ĠKore an
ĠNin tendo
Ġa wards
Ġtit les
Ġstri k
ĠColumb ia
ĠF er
Ġat mosp
Ġpurch ased
ĠPro t
ap ore
ĠO f
St ation
ĠF e
out s
Ġs ac
Ġl a
am in
ĠB ru
Ġarr ival
ip l
Ġsched uled
Ġdef ensive
Ġpow ers
Ġres emb
ĠProdu ction
Ġaccompan ied
ill ing
Ġ198 3
Ġcerem ony
Ġqu ite
ĠJew ish
in ity
Ġcon vers
resp ond
Ġexped ition
Ġth ing
Ġun us
Ġw orth
Ġper fect
ĠFranc isco
Ġloc ations
Ġexist ing
ic ial
w ater
g n
Ġinter act
ro om
Ġperform ing
Ġadvant age
ĠH y
at ures
ĠEar l
Ġdedic ated
Ġtr y
ĠComm on
Ġ196 9
Ġcomp uter
W hile
Ġ196 4
l aim
ĠAr g
Ġphil os
ĠL incoln
ĠOff ice
ĠBraz il
Ġext rem
ĠP erson
Ġintens ity
Ġoccup ied
Ġst ore
ul ate
ĠN ever
av a
Ġwh y
Ġs quad
Ġ191 4
Ġf resh
ĠSing apore
Ġm ounted
Ġ7 4
Ġb at
ĠL iverpool
Ġ5 8
Ġ191 8
ag an
ash ion
ĠC y
ĠPlay Station
o ch
Ġc ricket
Ġn ob
Ġclos ely
Ġm outh
hen s
Ġf irm
Ġcurrent ly
Ġcons ists
y les
Ġf ix
il ton
ĠCh ild
Ġs ession
ro ll
Ġ197 1
w all
Ġsim ple
Ġindust rial
ĠDis ney
r acted
Ġt ail
Ġp iano
Ġfac ilities
Ġ198 2
Ġel imin
Ġâ Ī
Ġ196 6
Ġsupport ing
Ġdra wn
Ġl ic
h ol
z ant
Ġc old
Ġ197 2
Ġbel ong
Ġtr ains
Ġe gg
Ġprot ection
Ġr ated
Ġbo ats
ĠJ enn
Ġgr aph
ĠS R
ĠL ar
Ġr ise
Ġt im
r ons
ĠB alt
Ġdef ined
ĠJe an
ĠD ark
ĠG il
Ġ197 9
ĠR el
ĠV en
ĠCare y
Ġse lection
Ġste am
ĠE p
Ġreg ions
Ġsub mar
Ġprot ected
Ġcall s
ĠCon ference
ĠR ol
ĠOlymp ic
uz z
ĠRail way
a o
Ġstruct ures
Ġmot ion
Ġcom ic
Ġro t
ĠBy zant
Ġth row
m outh
Ġtr ail
Ġa id
Ġfoc used
Ġopportun ity
Ġc ry
Ġrece iving
Ġl abor
Ġsh ark
Ġeng aged
W ith
ĠD ie
ĠSh ort
Ġshoot ing
Ġanaly sis
Ġ #
ĠN HL
Ġcor respond
Ġcitiz ens
Ġh air
ĠPe ople
ĠL is
Ġl ap
us c
Ġ196 5
ol a
ir ation
Ġpro s
Ġnot able
Ġstreng t
Ġobs erv
Ġsp ort
Ġ197 5
Ġad ap
Ġmot or
ĠH ay
ĠJ r
ĠP ot
Ġexper ienced
ĠAnd erson
ĠH un
ĠGerm ans
Ġcon ference
Ġhold ing
Ġprov iding
ĠBro ok
ĠTh rough
ĠEm peror
ĠLew is
ĠG ulf
ĠDe velopment
ul ts
ĠOr der
Ġvis ual
Ġres ident
Ġmount ain
Ġd ry
Ġh ired
Ġsout heast
Ġchart s
Ġey es
Ġview ed
un ior
ĠB ad
ĠT urn
Ġ5 9
if ically
Ġrapid ly
ĠHolly wood
ĠH on
Ġrecogn ized
ing er
Ġ197 4
Ġbr anch
Ġmer ch
Ġvol ume
ĠS u
ĠT am
Ġtrans form
ĠSer b
op her
ĠRad io
ĠP ress
Ġschol ars
v ention
Ġsit es
el ly
ĠMill er
ĠG i
ĠCon n
Ġcasual ties
in th
Ġg ain
ĠU r
Ġro b
Ġsh ared
Ġ9 9
Ġte ach
it er
Ġm ut
Ġ197 3
ĠDemocr atic
Ġconc er
Ġpublic ation
Ġv ac
Ġmod er
Ġparalle l
Ġpro te
Ġtemper ature
z er
Ġdig ital
Ġeconom y
ess ed
bur gh
Ġdevelop ing
ĠGr ant
ĠM ah
Ġreact ion
F L
Ġed ge
ĠSum mer
se y
st anding
Ġste el
ĠM ot
Ġinters ection
Ġc ool
Ġ6 2
Ġc art
f riend
Ġ197 6
Ġsymb ol
Ġappro ved
ĠCh ap
ĠL ieutenant
Ġch ance
Ġsecond ary
ĠSh ak
Ġ6 3
ĠSte ve
Ġw a
ĠE ven
Ġv on
Ġloss es
ĠP u
Ġprep ared
om ew
Ġbelie f
Ġsub stant
ĠV ol
Ġlet ters
ĠB as
ĠB ank
ĠR ome
Ġw itness
Ġsignificant ly
ĠS ix
ing ly
ĠDav is
e g
Ġen l
Ġband s
if ul
ĠAl so
Ġh arm
Ġs ort
ren ce
ĠH MS
Ġs ave
ĠB rian
Ġdom estic
y er
Ġ7 3
ĠF all
Ġmy th
Ġr ac
Ġ7 7
Ġfranch ise
Ġkn ew
ĠMus l
ĠD aily
ĠAdd ition
Ġv en
Ġliter ature
Ġgo es
ĠCon st
Ġunsu ccess
Ġact ress
Ġinst ruct
Ġsouth west
Ġtechn ology
Ġhead s
Ġrough ly
Ġ25 0
Ġsur vey
ĠSpec ial
Ġc ard
ĠS a
Ġadv ent
ĠM u
Ġdes cend
n s
Ġm ic
ograp hic
ĠBe yon
thel ess
Ġpain ting
aw a
ĠWal ter
Ġad ult
Ġany thing
i ents
Ġc ars
Ġ urban
Ġproject s
Ġsem i
b reak
Ġass ault
Ġex act
Ġbrother s
er al
am m
ach us
Ġgame play
Ġresist ance
Ġp itch
Ġl b
un te
ĠBar b
Ġneigh bor
ĠSy d
Ġh yp
ĠPr inc
Ġstory line
Ġsh ape
Ġre asons
ĠL ab
Ġrul es
Ġemploy ed
ĠPro v
ĠSup reme
ĠW ater
ĠG ib
Ġc ore
Ġd aily
Ġinj ured
Ġt ank
Ġwat ched
o h
v est
ĠD own
os a
ĠK ey
ast y
ĠP oint
im inal
Ġsh all
Ġag ent
Ġc ab
Ġpopular ity
C h
b ox
ĠU N
Ġcomp osition
Ġ194 6
olog ist
ĠT ro
Ġ ign
ĠN az
rop ri
ĠKent ucky
Ġs and
Ġper haps
ĠL ady
Ġadd ing
Ġenjoy ed
Ġren amed
Ġb or
Ġis ol
Ġget ting
Ġopin ion
ĠAt t
Ġdecl ined
Ġf it
Ġcomp ris
Ġrep utation
ĠComm and
Ġ6 7
ĠG ord
om ic
ĠI V
Ġ198 1
Ġconn ected
Ġsh aped
Ġest ate
g ers
Ġret ire
Ġmus eum
Ġd rew
Ġunder t
Ġregard ing
w orth
ĠOlymp ics
Ã ¤
Ġpo em
Ġst ages
Ġconver ted
ink ing
Ġ191 7
Ġview s
ĠN ap
he im
Ġre nd
ĠBeyon cÃ©
Ġl ov
Ġn or
it ors
ond er
ĠInd ust
ce ived
ist an
Ġag ricult
ĠâĪ Ĵ
Ġallow s
u a
ony m
ad or
ĠSt ation
Ġaltern ative
Ġdist ingu
ĠColon el
at re
achus etts
ĠIn c
ĠUp on
ĠNor way
Ġcal c
A ccording
ul pt
Ġhead ed
Ġn ick
Ġj ourney
r in
ĠK en
Ġdep th
b ound
Ġmiss ing
Ġc ited
Ġincreasing ly
av el
os l
ver se
ĠL y
ĠInd epend
ĠMass achusetts
Ġs un
Ġst adium
Ġappro ached
re ts
Ġturn ing
ĠM os
Ġ6 8
ĠF air
ĠG reg
ĠAir port
Ġrespond ed
Ġ7 2
Ġplan ning
Ġeas ily
Ġknow ledge
Ġex erc
Ġwe alth
o ir
Ġ9 6
en c
Ġover l
ĠB ase
ĠSp ring
Ġc ells
Ġf ashion
Ġesc ort
ĠPhil ipp
Ġsuc ceeded
ath an
e per
ul es
Ġcol lected
Ġ194 8
Ġequ al
Ġ16 0
ps ons
ret t
ĠAb b
Ġsaf ety
ĠW omen
ĠK ir
Ġexist ence
Ġconstit ution
Ġreb u
ĠGold en
ĠD ream
ild ing
ign ment
Ġaut h
Ġintrodu ction
ĠSim psons
Ġmod els
er a
Ġocc as
ĠOn ly
Ġsust ained
ĠS and
Ġtri p
Ġlear ned
ĠT en
Ġcol le
un icip
Ġ7 00
Ġpromot ion
Ġt all
Ġoper ating
ap es
Ġcarry ing
Ġbase ball
i i
Ġex change
ĠM as
ist ol
Ġshow ing
Ġr hy
Ġy outh
Ġlim it
ĠP rem
Ġbur ied
w ise
Ġhum ans
Ġ197 8
Ġcred ited
m itted
ĠWh it
c ome
Ġ8 7
ur ation
le ton
ĠR oss
Ġdep end
Ġp ul
Ġfl u
Ġarrang ed
Ġimpro ve
z en
Ġse ems
ĠW alk
Ġweaken ed
ĠIm perial
Ġdesign s
b a
ĠM ain
Ġim pl
Ġhyd ro
in ary
Ġ191 5
ĠOtt oman
Ġpro ceed
Ġprodu cing
Ġa thlet
Ġjoin t
ĠB ern
h at
i at
Ġfre eway
Ġpain t
Ġearl iest
ĠVietn am
Ġlast ed
Ġland fall
Ġsettle ment
ĠS us
ĠSong s
Ġnot e
g al
Ġdesc ription
Ġret ained
ĠAm ong
Ġac res
st ate
ĠC ape
ick s
ĠH an
Ġ6 9
Ġlaw s
Ġfl at
Ġappoin t
Ġgen re
F or
Ġb ed
ĠPol and
ĠSyd ney
ĠG ra
ival ent
Ġprogram s
em an
Ġassist ant
Ġ197 7
Ġrepl ace
Ġt on
p ut
Ġplay off
Ġ7 8
ĠR on
Ġres erve
Ġinst all
ĠH art
Ġcons c
Ġstat ement
Ġappl ied
iv ered
our ces
ĠN aval
iss ance
il ing
Ġviol ence
ĠO b
ĠB all
at o
ins ula
Ġscient ific
Ġentr ance
ĠP ict
Ġcoast al
Ġc atch
if orm
Ġtr ust
Ġ err
ot ic
Ġv irt
Ġh its
Ġne ut
Ġcon sequ
e or
Ġa w
Ã¡ n
os is
ot hes
ie ge
b ell
re ets
Ġexcl us
Ġmain tain
Ġit ems
Ġbatter y
Ġcandid ate
Ġ196 3
Ġindic ated
Ġ9 1
ĠPl an
Ġtown s
t ical
Ġsc ulpt
Ġgrad ually
ad er
ĠAr ts
Ġdistrib ution
Ġpolit ics
ĠWh o
Ġsyn t
Ġdel ivered
m ath
Ġ191 6
ĠM TV
av ig
Ġstop ped
el er
Ġf illed
Ġindepend ence
Ġs ections
Ġdet ails
eng ers
h an
ĠI mp
Ġst ream
ĠSt ew
ĠBow l
Ġt act
ĠD ue
ĠK a
d d
o ard
ap ped
Ġ9 4
Ġcomb ination
ig er
on ia
Ġse lect
t ime
Ġsuppl ies
ĠJ es
Ġway s
Ġc inem
ĠA D
ĠMary land
ĠConf eder
Ġpart ies
Ġeng ines
e ke
Ġem p
Ġprison ers
Ġcamer a
ĠL et
Ġgl ass
Ġappe al
ĠR oy
Ġa ware
ĠS el
ad s
ĠSt adium
Ġreg ister
ir a
Ġcamp us
us hing
Ġ191 9
Ġact s
Ġbas k
em ies
Ġv an
Ġextrem ely
or a
Ġent itled
ĠB al
iz ations
Ġsec ure
Ġ196 2
Ġal le
ĠN ick
ĠOn ce
Ġfind ing
H e
Ġ9 8
le e
Ġdec ade
Ġon line
Ġt y
ĠMo ore
re ll
ell a
Ġwin ner
por ation
ivers ary
ĠE du
Ġ8 1
ĠMe anwhile
idd en
G N
l an
el ess
Ġeven ing
ino is
ĠV ar
Ġinvestig ation
Ġt ick
ĠC a
ĠRe view
Ġb ought
ĠH a
Ġthreat ened
ĠThe atre
Ġmess age
Ġadap ted
Ġ7 1
Ġsurv ived
Ġs omew
Ġkn ots
Ġun s
ĠMc G
Ġstud ied
Ġ193 8
ĠRh odes
Ġpropos al
Ġt al
re c
Ġwrit es
Ġar c
end er
Ġdeath s
Ġcons um
Ġadd ress
Ġro utes
Ġrul ed
Ġreg iment
Ġdown load
Ġw ars
as hed
Ġrel ief
Ġf ear
Ġm ales
ĠJ ay
Ġredu ce
Ġrelig ion
ĠB os
Ġvot ed
ie val
Ġspec ifically
ĠMul der
Ġsp ons
Ġrev olution
rop ol
Ġc rown
ĠF ire
Ġph ase
Ġdut y
ph oon
Ġking dom
Ã ¸
Ġrec alled
Ġportray ed
ĠC ur
Ġf ict
ans as
Ġ8 9
Ġs oul
ĠSt aff
o z
Ġimp lement
Ġcontrovers y
igh ters
iqu es
ĠGord on
ct ions
Ġcaus es
Ġemer g
ĠP ass
Ġevery thing
Ġbreed ing
ĠA ri
Ġrefer ences
Ġst ret
erv ative
Ġs ell
Ġag o
Ġcap able
Ġconv in
Ġimport ance
Ġbott om
ĠB ra
ar p
Ġte acher
ic ian
ak a
Ġmet ers
ĠUn ivers
Ġoff ers
Ġ195 6
ĠM emorial
ĠR un
Ġent ry
Ġb le
ĠB and
Ġt anks
ĠA ge
Ġ8 2
sen al
Ġsuff icient
ain ts
Ġown er
Ġarrest ed
ak ed
Ġ17 5
Ġ13 0
Ġoper a
Ġadm itted
ent ially
Ġe c
Ġintern al
Ġnomin ation
ac ter
ĠR em
bour ne
B N
Ġ8 8
Ġb an
ĠA C
Ġe t
Ġcross ed
cher s
Ġproduct s
Ġcl imb
Ġcorn er
v a
ĠL oc
ĠSing les
Ġequip ped
Ġ193 6
Ġinst alled
Ġconcern s
Ġover se
ane an
Ġpre ced
Ġinv ited
Ġconv oy
Ġinterest ed
Ġon es
Ġstart s
Ġprincip al
Ġcr ime
w ich
ad ow
ĠW ell
ĠCon stant
Ġrecomm ended
Ġcon qu
Ġremain der
el a
I t
Ġshe l
ĠK ong
Ġmed al
Ġact ual
Ġm ort
Ġret reat
ĠU TC
ill er
Ġsh ut
ĠBe ach
ruct ure
Ġt ell
Ġaut om
h r
esp read
B S
Ġchar ged
Ġac id
Ġobject s
ĠInst ead
ĠJust ice
Ġpr ice
ĠPl ot
ĠAb out
Ġfund s
Ġap art
ĠC irc
Ġcompos er
ĠH ere
Ġsol id
a ug
Ġ7 9
Ġdo or
ĠV ill
Ġfem ales
Ġconsist ing
Ġst ock
Ġun l
Ġal t
Ġpromot e
Ġf ly
ĠPro f
ĠY our
Ġp age
m et
ord an
Ġconsider able
Ġv ent
Ġd ates
il ation
Ġ196 1
Ġmil it
Ġn est
ĠJ an
Ġs now
ĠV II
ent ions
Ġtyp ical
ĠK im
ĠN ic
ĠFore st
Ġ Î
Ġground s
Ġ195 3
Ġext ension
Ġdut ies
Ġcor rect
Ġinte gr
er ted
ĠB on
Ġg all
ĠJ ane
Ġsome one
ĠG ram
Ġev olution
b ro
ĠM oon
Ġr ural
ĠN BA
Ġpen al
al i
Ġe ighth
v ements
Ġhot el
ĠN ether
Ġdec ades
Ġim ages
Ġb low
Ġdr iving
Ġread ing
ĠDou gl
re te
ĠB ir
Ġident ity
Ġz one
ĠAn th
k o
a fter
ĠF ound
Ġocc urs
Ġso le
ĠAd ams
os ite
Ġman ner
ĠV ideo
at i
ĠKenn edy
Ġchall enge
Ġl ane
Ġrem ix
Ġsk in
Ġasp ects
Ġperman ent
ĠT ony
Ġbr igade
ĠInd ones
el son
ĠSund ay
Ġd ated
up t
Ġ194 7
Ġsp in
ĠCol l
ĠEng ine
ĠNor we
Ġfr ag
Ġvol can
Ġnot ing
ĠDe ath
Ġsub s
ab b
ĠMar ia
Ġrest aur
ĠTrans port
Ġsuppor ters
ĠHam ilton
Ġslow ly
u ro
Ġpost ed
Ġcol our
het ic
Ġcle an
ĠDirect or
w ick
Ġdescrib ing
Ġ195 8
ĠC op
ens us
Ġinvol ving
ĠIndian a
Ġ8 4
vel and
ĠPro ject
Ġent ering
osaur us
iv als
ck now
Ġspe ak
Ġvess els
Ġen emies
Ġ191 0
ĠMc K
A T
Ġh am
Ġequ ivalent
Ġd ress
ĠPort ug
Ġclass es
aw are
Ġdeb ate
Ġsett led
Ġdep artment
Ġob tained
ĠAl f
Ġ195 7
ĠAss embly
Ġ193 7
Ġacc ur
ĠSim on
ĠMil itary
Ġa er
ile y
ĠI GN
Ġarm or
B I
Ġpar liament
Ġbas ic
ĠAl an
Ġ9 3
ris is
ĠMag azine
Ġpurch ase
Ġsong writ
reg on
ĠI d
ag ues
Ġold est
Ġpat rol
Ġ11 0
Ġf aith
ĠPro g
Ġdepart ure
Ġd in
Ġwid espread
Ġv ir
Ġconcern ed
ĠSc ully
Ġinc ome
Ġdec line
ert o
Ġp up
Ġatt ached
Ġform al
Ġconn ection
ĠC art
it err
Ġrecogn ition
Ġf olk
Ġcert ified
Ġacc used
ĠO k
he astern
ĠP ower
Ġm emorial
ĠCon stitution
ĠTur k
h us
Ġsequ el
Ġo uter
Ġder ived
o oth
ĠMount ain
ĠHow ard
ĠWeek ly
c ation
Ġm ode
Ġde leg
re ck
he red
n ic
ĠH ou
ĠAd am
ĠSc ience
Ġwear ing
Ġdec or
Ġass umed
ĠHit ler
ĠR ose
omm od
Ġdist urb
Ġte le
or ney
Ġacc laim
Ġsw im
ĠâĢ Ŀ
Ġa cknow
Ġh ip
ĠC ult
Ġcomm itted
w estern
ĠIll inois
Ġhost ed
ĠP it
Ġreturn s
ub b
ĠArg ent
Ġwar m
Ġval ley
Ġs essions
Ġt orn
Ġpop ulations
Ġf oss
Ġden ied
Ġ195 9
agon ist
eke nd
Ġf ine
Ġseg ment
iterr anean
ak i
Ġch ampion
Ġtem ple
ĠP ear
Ġchar ges
Ġliter ary
ic it
Ġthous ands
ĠF A
Ġtermin us
Ġtrans ition
ĠA st
Ġsupp osed
Ġreg ional
ĠBeat les
r as
Ġcon g
al og
ious ly
ĠMed iterranean
Ġwick ets
are t
e ing
ĠO regon
ion e
Ġ8 6
Ġcan c
Ġdem and
ĠE ric
ĠRol ling
ĠSp ace
id ges
Ġ195 5
ĠWW E
Ġ195 4
Ġsh ots
ĠIS BN
ĠLe on
Ġstrong ly
a ired
ĠNorwe gian
Å Ĥ
Ġcirc ulation
ĠP o
Ġh ang
Ġintellig ence
hed ral
Ġs ailed
man n
Ġposs ibility
ĠRes earch
ud den
Ġpass engers
ac hel
Ġh ope
Ġgener ation
Ġanim ated
he me
ĠSt and
ĠRy an
ĠCle veland
or gan
Ġcirc um
u an
Ġfre edom
Ġfict ional
Ġthir ty
ĠDougl as
Ġcomm it
Ġdown town
ĠMar c
em ed
Ġan sw
ĠStan ley
op hy
ĠB ry
bor ne
ĠI ra
Ġbehav ior
Ġmin ister
ĠJ ordan
f l
Ġh ill
Ġr ich
ĠG un
ĠTh ird
Ġrepl acement
Ġbeg un
ĠL enn
Ġcommand ed
ĠH ug
ĠÃ Ĺ
Ġassist ance
ĠT reat
Ġmov es
Ġdest ruction
ĠG ill
Ġcl oud
Ġpo ly
ĠMed ia
Ġmiss ions
Ġmiss ed
Ġcr iminal
Ġcost s
ĠCh annel
Ġbr ain
atin um
Ġexcept ion
Ġf ruit
Ġhigh light
Ġbring ing
e z
Ġt ied
r ations
Ġcr ash
ĠIn it
Ġint ention
b ar
m es
Ġfeel ing
ĠP ier
ate gy
ip e
Ġspe aking
ĠKore a
ĠCrit ical
Ġprot est
ĠF eder
Ġfin ishing
Ġunus ual
Ġalle ged
Ġinter cept
ĠFred er
Ġproper ties
Ġincorpor ated
ĠF ederal
rop hy
Ġdem ol
ĠMexic an
ĠAnd y
Ġstay ed
Ġopp osite
Ġattrib uted
ĠI v
Ġvol unte
Ġrecover ed
Ġbre aking
Ġemer ged
ĠF ame
Ġserv es
S p
Ġs ons
or al
Ġatmosp here
ĠS ky
ĠK at
Ġfl o
els h
ĠBr istol
ont o
Ġsh op
Ġ195 2
Ġtheat re
Ġdr iven
ĠBet ween
Ġoccasion ally
Ġchor us
ĠPhil ip
w an
oth ing
ĠT enn
Ġstr ateg
Ġclass ic
Ġread y
iv a
Ġregular ly
Ġd ipl
Ġeffect ively
Ġc avalry
Ġd ang
Ġestablish ment
Ġpre y
Ġcour ts
Ġsp ok
Ġmethod s
ri ers
ĠâĢ ľ
Ġsound s
ole c
Ġv ary
Å ¡
ĠFam ily
m b
om pl
ĠCol or
k er
oy d
Ġmaterial s
Ġcomplet ion
Ġstrengt hen
Ġ193 3
Ġsh ore
Ġsup erv
Ġd ivers
Ġrespons ibility
Ġd ream
ens es
ĠRe le
ĠBru ce
ĠS av
Ġdiss ip
Ġatt racted
Ġsurv iving
Ġwar ning
Ġfield s
ĠHaw ai
Ġacc ommod
Ġ17 6
Ġpers u
Ġprov ince
Ġhe at
osl av
a ire
ĠL ow
Ġent ertain
os h
Ġclass ified
Ġglob al
Ġdiffer ences
Ġdiv isions
Ġtechn ical
Ġinterp ret
ĠPh ill
th m
so le
ĠKe vin
le ts
ec e
Ġcru iser
Ġqu ant
Ġpass age
l ig
ism s
ab led
Ġab oard
Ġ193 5
Ġclub s
p et
Ġst ood
Ġrat ings
Ġne ither
Ġassoci ation
Ġ8 3
Ġele ven
ĠR ain
Ġmusic ians
Ġro oms
ĠNorm an
ĠLis a
ĠB ush
ĠG en
az a
Ġrein force
ĠSwed en
Ġn one
Ġdes ire
Ġsepar ated
Ġcl imate
Ġche ck
j a
Ġ194 9
ut y
Ġsh if
Ġout break
Ġ9 2
n ce
Ġclass ification
we ight
ĠRog er
ĠAd v
Ġ195 1
Ġvehic le
Ġmed ic
Ġanc est
Ġseem ed
r an
ĠD isc
Ġreal ity
Ġpred ecess
um in
ĠTod ay
n ight
ĠUS A
ĠT ar
ĠL anc
ĠN ations
Ġvot es
Ġchem ical
Ġpict ure
ol i
Ġbattles hips
n ings
ĠMor gan
te enth
Ġmem ory
Ġhop ed
ĠAr senal
Ġrequest ed
ĠA z
ĠMor ris
ĠByzant ine
is f
Ġmov ements
I A
ĠF ive
ĠC E
Ġra ise
Ġhistor ians
ag le
ĠM aster
ĠTe levision
om ot
ĠW eb
ĠB udd
Ġro se
Ġdifficult y
Ġbask etball
B e
ĠN ow
ĠW elsh
ĠF inn
ew here
ch ar
d on
pp er
ĠSc ient
Ġcommun ities
ĠPrem ier
ĠNether lands
Ġrest ored
Ġs am
Ġ ille
ĠB ah
Ġexp ect
Ġrem ember
ĠRob inson
Ġprogram me
ĠTor onto
ĠTem ple
ĠR ow
Ġte en
Ġpremi ere
in ton
Ġdelay ed
ĠP ur
b urn
Ġrel ative
Ġdiscover y
Ġp ure
Ġk id
Ġinsp iration
Ġother wise
Ġgreat ly
Ġs qu
ĠB ol
pp ing
ĠJew s
ĠH o
Ġann iversary
Ġv ide
Ġinj uries
w en
Ġh ol
ĠN elson
Ġacc ounts
Ġfund ing
Ġsurround ed
Ġfl ank
Ġsp oke
Ġpra ise
ĠF ord
Ġpenal ty
Ġbatt ing
Ġneed s
ĠFranc is
Ġdep ict
Ġf al
ĠG er
Ġpart ner
Ġmass ive
am i
Ġweap on
Ġclaim ing
Ġd ens
Ġ19 00
c a
Ġd ie
ann y
Ġc rop
ĠCon c
Ġsu it
ĠIra q
ĠJ ournal
Ġtri es
Ġform ing
Ġstr ategy
ĠN ich
Ġass emb
ĠAn ton
S h
ĠIn t
R A
Ġast ron
Ġw rong
omp son
ĠAddition ally
ĠS ax
Ġr u
Ġle gend
Ġdocument ary
ĠC as
ĠPat rick
ĠH ell
Ġacc ompl
Ġcross es
ars h
ĠI ron
ĠD og
Ġfl ed
Ġwor st
y ard
Ġm o
Ġstand s
ĠC ab
ab il
Ġarchitect ure
Ġtem porary
Ġgirl s
Ġtr a
Ġdeterm ine
g ets
Ġdismiss ed
C A
Ġg al
Ġinvol vement
ĠAll en
ub le
ĠDe an
ĠRec ording
ut her
Ġrec ru
Ġbomb ard
re al
Ġs ale
Ġc ategory
ĠA k
Ġpl ane
form ula
Ġrem n
b an
ĠB a
Ġin ner
ic i
ĠT echn
Ġadapt ation
Ġconvin ced
Ġens ure
ĠAn ne
Ġwe ekend
Ġhe ar
Ġs ight
Ġl at
Ġas h
ĠCent re
Ġres ources
Ġsomew hat
1 9
ĠN FL
ĠCroat ian
ĠP ow
ĠAr men
Ġinterest s
ĠJac ob
go ing
Ġres erv
ĠMar ine
ĠProf ess
Ġh a
Ġsc heme
Ġmed ieval
Ġimmedi ate
Ġdis pl
Ġsh r
ond s
Ġl ibrary
Ġst reets
Ġpresident ial
ind er
ĠB ishop
Ġabs or
ĠM it
ĠE s
ĠDes ign
Ġc ul
ĠN ar
Ġcons p
Ġfall ing
Ġr ay
Ġcolon ial
ag re
Ġcar bon
ĠH oly
ĠO pen
Ġtechn iques
Ġf ighter
Ġn inth
ĠPu erto
ĠO ak
Ġthr one
Ġstar red
Ġsc rap
Ġapp ropri
Ġclass ical
Ġegg s
ĠS ports
b ody
Ġr aces
Ġacad emic
ig e
ĠD omin
ĠHe art
Ġad ults
Ġh al
ost er
Ġbr ight
Ġpass enger
Ġcomm emor
Ġsurv iv
ĠAg ain
ĠIs lam
Ġl oyal
ĠD E
Ġo w
Ġphot ograph
Ġo ri
Ġme ets
itz er
ĠGl ob
Ġl ake
Ġreview er
Th is
Ġpremi ered
edd ing
Ġsubmar ine
ĠP A
ĠN etwork
ĠHung arian
us ic
Ġabs ence
ĠR aj
Ġsee ing
Ġf itted
ic ide
ĠT rib
ĠBro ther
Ġren ew
Ġsuper ior
we alth
Ġel se
Ġs ed
Ġal ien
Ġfavor ite
Ġinter ior
Ġengine er
ĠMatt hew
ĠD ig
os ure
ĠCar ter
ĠRuss ell
ron ze
Ġ191 3
Ġpart n
Ġair port
Ġ ic
Ġde emed
Ġattack ing
ĠShort ly
Ġappear ing
ĠL ast
Ġvis ible
Ġconc lusion
t ic
Ġd ating
Ġrom antic
ac ent
Ġcharacter istics
Ġsynt hes
Ġd ub
Ġlead s
Ġ192 6
Ġelect ions
ĠN iel
Ġoper ate
Ġfac ility
ĠWin ter
Ġencour aged
Ġafter wards
Ġretire ment
Ġland ed
b ec
Ġcol ony
Ġtemper atures
ut t
ĠAr n
Ġconv ection
Ġevery one
ĠMar g
Ġsuff ering
Ġm unicip
Ġ192 7
ĠL ibrary
Ġcred it
Ġlegisl ation
Ġl ies
ĠH op
Ġhold s
Ġmod ified
us ing
Ġ192 1
Ġr um
ĠMar s
Ġ0 6
Ġpain ted
ĠN C
Ġdo ct
Ġcontrovers ial
ĠF ront
ĠL abor
Ġw ings
Ġg one
as ure
ĠK elly
Ġ193 4
Ġbelie ves
ĠD ick
oss ible
ĠSim ilar
Ġâ Ĥ
Ġdistrib uted
om ing
Ġattempt ing
ix on
r ad
Ġc ode
ĠB ang
ur ches
og en
ro it
ĠHe nd
Ġp in
Ġstand ards
Ġlook ed
Ġresc ue
Ġauth ors
iv an
ĠTh ompson
Ġsec ured
ĠD or
Ġdep icted
ĠG ard
Ġcan cer
Ġmon arch
Ġdomin ated
Ġbattles hip
D espite
Ġhabit at
v ens
Ġcontin uing
Ġany one
Ġbu y
o en
Ġlong est
ĠPal ace
Ġjud ge
es ter
ap se
sc ape
ĠBer lin
com ing
ĠD NA
ĠW right
p son
ĠHar ris
Ġbig gest
Ġ191 2
Ġunsuccess ful
Ġgraph ics
s es
it o
em et
Ġgr ass
Ġchair man
ĠW he
ĠEdu cation
an th
Ġtr ained
Ġarch ae
ĠS n
ĠP ak
ĠW y
Ġun ion
ĠCo oper
ĠCommon wealth
Ġp ound
ug oslav
Ġs udden
Ġ9 00
Ġw ins
Ġarrang ement
ult ane
ĠUS S
as er
Ġcar rier
ĠEver y
ĠJ am
Ġn eck
ch ang
p on
ac he
Ġrail road
enc ies
Ġnick n
Ġ193 2
Ġj ump
tern al
Ġacknow led
ig ration
ĠN ob
ĠHou ston
ĠD er
Ġinform ed
Ġmeas ures
ĠInd ians
inal s
e enth
ĠF ree
ra it
ĠH ospital
ĠSt ory
Ġrepresent ing
Ġs an
Ġm ap
emet ery
ĠR ick
app ing
Ġrele ases
ĠAd vent
ask a
at ically
Ġbel t
ĠA I
Ġachie ve
ĠSant a
ĠComm ander
ĠPol ice
ĠCor poration
h ar
el ine
Ġgar rison
á »
Ġse es
Ġformer ly
ĠRA AF
ust er
ĠBat man
Ġgr ade
Ġgener ated
ĠSwed ish
Ġconv ention
b ook
Ġclos er
Ġdeploy ed
Ġst yles
Ġemerg ency
Ġb ats
ĠPark er
t ure
ot es
Ã³ n
ten ance
Ġal leg
Ġquest ions
Ġg ets
Ġtri als
Ġmoder ate
Ġf estival
op es
p o
Ġs iege
Ġm olec
Ġinflu ential
Ġhistor ic
r ant
ĠG ri
Ġcy cle
Ġemot ional
ĠT ok
ĠSim pson
Ġv eter
ĠY ugoslav
f are
Ġown ers
Ġnov els
ĠU t
h ire
Ġsuccess or
Ġinflu ences
Ġnar rative
m un
ĠTh us
y o
ly n
ol ph
ĠN BC
ĠY an
Ġjournal ist
ĠDet roit
Ġth in
Ġchild hood
Ġ192 9
Ġexper iences
ot ype
Ġst ead
Ġex cess
aw s
Ġconst ant
i ography
Ġdef ended
Ġdiscuss ed
Ġe at
Ġleg s
Ġapparent ly
Ġal co
ĠG et
Ġpre gn
ow a
Ġinstr uments
ĠG h
Ġmat hem
Ġass ass
Ġ0 8
Ġ191 1
Ġvict ims
Ġtre ated
a is
Ġenvironment al
Ġve get
ĠMur ray
Ġexec uted
Ġg iant
Ġdet ail
ĠSp e
ĠE le
Ġcoin s
P A
ĠE y
j i
ark ed
Ġdipl om
Ġs ter
Ġoffic es
f ire
ĠR AF
Ġfact ors
Ġdep os
Ġ193 1
Ġm ine
ĠC ry
Ġ192 2
im ore
Ġent ers
Ġ14 0
Ġhun ting
Ġwood en
Ġconc ur
r um
ĠO d
Ġbe ar
ĠB ure
ach ment
ĠWar ner
n oon
Ġmain t
Ġhundred s
ĠE st
ust ed
ĠAs ian
ĠRober ts
ĠBel g
ĠCroat ia
Ġres igned
Ġr ide
ĠC ook
ĠB ou
Ġsk ills
Ġch annel
ast e
Ġun iform
Ġreve als
a ft
Ġg ay
l ie
Ġo cean
ĠSoc ial
Ġchap ter
Ġpoin ted
Ġn avig
F rom
Ġ0 9
Ġr idge
Ġsp end
ĠSil ver
Ġen h
ĠX box
Ġwatch ing
ĠC ategory
Ġprev ented
st ances
ĠG aga
ĠO bs
ĠConst ruction
ĠH in
ĠL yn
Ġcl im
ili ar
Ġprefer red
re es
Ġp ushed
ĠMer c
ĠMel bourne
ag u
ĠJes us
Ġform at
ĠSp ears
ĠA cc
Ġloc omot
Ġfoot age
Ġlangu ages
Ġdiffer ence
ĠKn ight
Ġhappen ed
O ne
Ġform ally
Ġthere after
Ġopp onents
Ġfle w
Ġdrum s
Ġreported ly
ĠM ort
Ġfac ing
Ġrelationship s
ĠNiel sen
Ġres ign
el le
ĠV ice
Ġint ense
Ġthous and
Ġhand ed
ĠMusl im
Ġdev ice
Ġnot ably
Ġp ull
Ġanim ation
Ġf iring
ic ians
og ether
ĠAnth ony
Ġch ain
ĠCar ib
Ġinh abit
Ġex isted
Ġvisit ors
ĠP C
t ty
Ġv ision
te xt
ĠC ru
Ġg ather
Ġsurre nder
Ġemploy ees
ĠExp ress
ĠT ower
ĠS omers
ĠPrinc ess
or ous
ĠEv ans
Ġaccomp any
Ġb on
un a
ĠTurk ish
ĠJ ason
res ent
Ġdepart ed
Ġlink ed
Ã ±
Ġhe aring
ĠCh amber
Ġexp osed
Ġbo il
Ġparticip ate
Ġpoet ry
ĠMod ern
ĠAlbum s
Ġdial ogue
on ies
ĠCl inton
o is
ĠAtl ant
Ġext ent
ch ing
sp ec
Ġdet ailed
Ġannoun ce
be an
ĠStew art
Ġsubstant ial
u v
Ġ17 0
Ġlear ning
ĠGre ece
Ġaud io
Ġinst ance
Ġunivers e
Ġreb ell
Ġcru isers
Ġresident ial
Ġbe ach
ĠAust ria
ĠQue ens
ĠBalt imore
Ġimp ressed
ropol itan
ĠP ope
al o
Ġb es
Ġperiod s
ĠSam uel
ĠGil bert
ĠF I
end ment
Ġh uge
pris e
ĠColor ado
i ens
ut s
D S
or age
Ġpubl isher
ĠA round
rap h
ĠT al
h att
Ġt aught
ĠLe v
ull ivan
Ġe asy
Ġpl ate
ĠFound ation
ar ia
Ġafter noon
Ġent hus
Ġut il
ĠL ane
Ġf il
st ic
Ġterrit ories
Ġdr iver
Ġst em
Ġtest ing
Ġimp rison
Ġreview ers
Ġvide os
it ter
Ġh appy
ĠL ate
ph y
Ġ0 5
Ġtest s
iam i
ĠAut hor
Ġh at
Ġup d
Ġtem por
Ġunderst and
Ġisol ated
Ġte eth
Ġsk y
Ġs ke
un es
Ġst able
oy s
Ġ192 8
m ad
Ġnegot iations
rib ed
Ġvess el
Ġfe ud
Ġdiam eter
ĠLenn on
Ġin her
Ġag ents
Ġsym pt
Ġl iqu
Ġv ul
Ġrep rodu
Ġpick ed
ĠWith in
ra f
Ġm art
um ph
Ġencoun tered
Ġbr idges
Ġgood s
Ġdang erous
ĠR aw
ĠCh ronic
Ġfact or
ĠL i
Ġj unior
Ġteam m
Ġ192 5
Ġdi agn
Ġwithd rew
Ġag ed
Ġfound er
Ġsim ultane
ĠGu y
Ġsle ep
Ġnorm ally
Ġupgr aded
Ġre un
og an
ĠRele ase
Ġkeep ing
ĠGi ants
ĠUl t
Ġspec imens
Ġbehav i
or ial
ic an
ĠSt ock
Ġp ounds
ro ke
ĠHe avy
Ġmed ium
Ġwind ow
Ġsat ell
ic op
Ġl ob
Ġfrequ ent
ot o
Ġsu re
Ġpart ly
Ġrel ie
Ġ189 0
Ġt ie
et ime
ĠAr k
Ġlow est
Ġcoll aps
Ġeth nic
Ġc risis
ĠChampionship s
ĠHor se
m ission
Ġres ear
Ġengine ering
r im
Ġto ll
ĠMal ays
ĠRe al
Ġ x
Ġapp rec
Ġtravel ed
ĠW restling
Ġ192 4
ĠAng lo
Ġorgan izations
Ġwhere as
ĠM iami
Ġpro ced
Ġpro hib
ĠM un
Ġdesign er
Ġrare ly
Ġl ose
Ġref ers
l ock
Ġd iet
ĠD esc
se a
ames e
ĠTr ack
ĠOr gan
Ġdoes n
Ġtur rets
Ġt one
Ġtechn ique
Ġout f
ĠSar ah
Ġdet er
ĠH orn
Ġm ir
Ġsp ending
ĠB enn
Ġfinal e
Ġcritic ised
ĠPlay er
ĠSomers et
Ġv ice
Ġadv ice
bor ough
z y
Ġv ic
Ġperm ission
us al
ri k
Ġmain tenance
Ġins c
ĠTre k
n est
ĠFreder ick
Ġpl atinum
ro c
Ġdifficult ies
Ġunc ertain
Ġpart ially
Ġunder w
Ġpolic ies
ab ama
enn is
Ġby pass
Ġrest ric
Ġag ree
ĠUn like
Ġver se
Ġf ur
Ġcomp lic
Ġmain stream
Ġcompet e
ĠB ird
ĠEd d
Ġindic ate
ĠTreat y
Ġperson ality
Ġrank ing
iec e
Ġc a
Ġrecord ings
ol as
usc ript
Ġcom ments
Ġexc ell
ĠW ing
Ġpro port
Ġpers p
ĠMarsh all
in ction
Ġrem ove
ĠFor ces
Ġfinal s
Ġref uge
hel m
ĠCarib bean
ĠNever theless
Ġant icip
ĠB ab
ig en
ĠMar io
olog ists
Ġconcer ts
Ġa x
Ġch ronic
Ġsaf e
ig s
y gen
il st
Ġse ats
Ġwind ows
ĠB ed
ĠSe attle
ger y
ur ance
Ġun n
ok ed
Ġrest rict
Ġext reme
Ġfall s
Ġr ates
atter ed
Ġrecomm end
Ġf ighters
ĠK now
Ġstri p
Ġhon our
Ġpit ched
Ġrep air
Ġ192 3
Ġcover s
ĠC z
ri or
Ġrec ur
Ġrepresent ative
i y
r ain
ĠL im
Ġsy mp
ĠCan al
Ġdiv or
ĠYan ke
ĠH ans
Ġj ur
Ġmon ument
Ġmor al
Ġt enth
Ġm amm
Ġal ter
ay a
Ġtr uth
Ġprompt ed
Ġp hen
Ġfor cing
Ġdescrib e
Ġph r
Ġbr and
Ġh ockey
ĠT s
Ġto t
ĠA ud
ĠI owa
ĠTh or
aw ay
Ġdestroy ers
che ll
Ġmin imum
ĠMiss iss
Ġshe ar
ĠCro wn
A ll
Ġrec onst
ĠB uck
Ġch urches
Ġneighbor hood
Ġdif f
Ġfriend ly
Ġh ull
Ġover s
Ġexam ples
Ġbas es
Ġboy s
ĠTown ship
3 0
ĠAn na
Ġdraw ing
ĠBro s
i ac
p ower
ĠJ ess
Ġtrav elled
ĠG arden
Ġbomb ers
Ġp ric
Ġt ub
Ġdyn asty
ĠAl abama
Ġdo ctor
Ġadj acent
x ual
Ġin aug
Ġappro val
ĠMin istry
Ġhous ing
Ġdisplay ed
is d
ĠHung ary
l s
ro t
Ġ0 7
Ġcred its
Ġcreat or
ĠUS D
ĠSen ator
ĠO t
o hn
Ġgro wn
ĠAustral ians
Ġjoin ing
Ġlist ing
Ġcoll apse
Ġtrib ute
ĠLaw rence
Ġpartn ership
ol is
ĠGram my
F C
ĠMin nes
Ġprot agonist
ĠB uff
ĠDie go
ĠNaz i
ĠM L
Ġmom ents
Ġact ed
Ġchang ing
an z
Ġdesign ation
Ġcreat ive
Ġexpl o
Ġcop y
Ġpow ered
al ions
ĠCount ry
ug by
Ġask s
Ġf ung
ĠH amp
Ġref ere
onna issance
E S
Ġgr av
an ium
ĠH uman
Ġtre nd
Ġstorm s
Ġrad ar
Ġvill ages
Ġinstrument al
ĠNap ole
Ġt urb
ĠD ave
Ġappoint ment
Ġar ts
Ġdoll ars
ĠBelg ium
ĠS ab
Ġor b
Ġtreat y
ĠD ance
Ġadv is
Ġposs ession
Ġscient ists
Ġ190 5
ic y
vel t
Ġcan al
c ol
j amin
Ġround s
Ġvict ories
Ġsurv ive
Ġelimin ated
Ġpaint ings
Ġcover ing
Ġm and
M A
ĠM P
im eter
oun ced
ĠHe alth
ĠGuard ian
Ġtr uck
Ġmin imal
Ġ190 8
ĠCharl ie
Ġor bit
Ġj u
Ġ els
Ġt elling
ud a
Ġprec ip
Ġels ewhere
Ġ190 9
Ġnewsp apers
Ġsurpris e
Ġbenef it
Ġinn ov
ĠLeg acy
Ġseek ing
Ġarr iving
Ġhelp ing
ĠMed al
ic ts
ĠH ockey
Ġoccup ation
ĠVietn amese
m ers
ĠC R
Ġsu icide
Ġwhe el
Ġpurp oses
Ġrhy thm
iv ated
Ġval ues
Ġdisp ute
ot ten
od s
Ġoccas ions
Ġp ed
Ġun like
og y
Ġsm ooth
Ġlo an
ĠC re
ec raft
Ġtw in
Ġo ption
it ud
Ġp ool
rup ted
Ġg ard
ĠH ills
ĠAl ong
act ive
Ġman uscript
hatt an
Ġf ishing
Ġstrugg le
Ġmar ry
at us
Ġb rick
Ġso il
ĠMc D
ĠShak esp
ĠR oc
ĠBl ood
Ġmur d
id i
for ced
Ġw et
ose velt
ou ri
Ġbal ance
ĠM ach
Ġdeg rees
ĠB anks
ĠC all
Ġg at
Ġpres erved
c hen
Ġsched ule
ograph ical
ĠH ud
ĠChild ren
ĠH and
ĠRep resent
ĠC old
ĠD C
ĠPen insula
Ġpublic ly
Ġc ateg
ĠE xt
ather ine
Ġcry st
Ġ190 7
Ġviol ent
Ġres umed
Ġco oper
Ġcandid ates
id ers
Ġfl ash
Ġem peror
Ġneigh bour
Ġw edding
ĠDe ad
Ġcompet ed
Ġpil ots
ĠTr ust
Ġsurviv ors
ĠR a
ĠMan hattan
ĠMinnes ota
ro id
mun ition
Ġab ilities
Ġ12 5
st ers
row s
in ally
Ġ10 5
Ġd ies
Ġpro cl
Ġneut ral
over s
Ġ16 4
Ġdisc ip
ĠAdm inist
Ġbeaut iful
inc ial
Ġintens ified
Ġsp an
Ġimp ossible
Ġal ignment
ent ional
Ġteach ing
R e
ac le
Ġco ordin
Ġass isted
ĠThe n
Ġdefe ating
ĠKh an
Ġc ook
ĠI an
Ġarg ument
Ġw rest
Ġadv oc
Ġpo ison
Ġmult i
Ġconc rete
Ġcust om
Ġelect ronic
Ġl ists
Ġn ations
Ġcons ult
Ġhel icop
Ġg rey
ĠD ur
ok ing
ĠIndust ry
Ġpro sp
ĠK ansas
ĠRo osevelt
en h
Ġr ivers
Ġser ial
Ġass ists
Ġle m
Ġopp onent
Ġabs ol
ĠL l
Ġinterest ing
Ġfound ation
Ġagricult ural
ĠAlf red
Ġel abor
Ġbusiness es
ĠFrank lin
ĠHot el
ens ions
Ġsu itable
Ġback ing
Ġsim pl
m ith
rom e
Ġsign ing
Ġover t
ĠC amer
Ġsub mitted
Ġ188 0
Ġd anc
il ty
Ġtun nel
b ra
e are
Ġm ines
Ġfif teen
Ġunderst anding
ĠMississ ipp
ĠO p
ĠPol it
ĠBen jamin
Ġschol ar
Ġencoun ter
Ġox ygen
ob ile
Ġsympt oms
Ġc iting
Ġw aves
Ġbeh alf
ĠH ind
Ġ16 5
Ġs unk
it ated
Ġpercent age
ĠSat ur
ĠChrist opher
m ph
ul ating
Ġforest s
ĠN at
Ġpar ish
T o
e u
Ġsit uated
ĠLa ure
Ġspirit ual
Ġn inet
Ġfor ty
od ore
Ġsign s
ĠPort land
ĠR and
Ġclos ing
Ġs ank
Ġsubject s
ĠAre a
il a
is p
Ġam munition
Ġvo iced
Ġus ual
ĠL in
Ġill ness
Ġrep airs
onym ous
Ġres olution
l i
ĠB ull
ri x
ĠA R
ĠBl ues
ĠA h
ct ic
ĠFl ight
ĠWalk er
ĠK urt
ĠT un
ess ee
Ġask ing
Ġdis aster
Ġfun ctions
ĠBu ilding
Ġim perial
ĠShe l
Ġcor por
ĠÃ Ĩ
Ġattend ance
Ġcollabor ation
ĠThrough out
ĠHin du
ant e
ĠA ff
Ġass ess
Ġl ieutenant
Ġrestaur ant
al ities
ĠH ong
Ġaud iences
ar on
ĠE vent
Ġev il
Ġ0 4
Ġcontro ll
Ġfeel ings
Ġunder ground
ĠMic hel
ĠInter state
ram s
Ġw orship
Ġj unction
Ġdel iber
Ġfl ights
f ather
Ġn om
Ġaff airs
Ġsusp ended
S ince
ĠD iv
Ġsk ull
ĠHer o
ĠL ith
Ġex it
ĠA thlet
ĠI ce
Ġwill ing
ic er
Ġtar gets
Ġearth qu
ĠB eck
Ġcar go
ĠAn im
Ġrec re
ĠCo le
Ġfun eral
e an
Ġ190 6
Ġaff air
Ġk ne
ĠR ang
as ters
Ġoper ational
ĠAlex and
Ġpoor ly
Ġab ol
Ġmeas ured
ĠW ard
ĠF al
ĠN ash
od ge
Ġcomp ilation
Ġdoc uments
ĠShakesp eare
iven ess
Ġf iled
Ġmount ains
Ġaim ed
Ġpr on
u able
Ġregister ed
ĠV I
Ġcirc uit
Ġ36 0
ĠLouis iana
ĠEgypt ian
ĠR ace
Ġ190 4
se x
Ġle ct
ord ers
Ġstr ing
Ġinit i
Ġstat ue
Ġfavor able
ĠP le
ĠN ative
Ġel der
ĠPhilipp ines
ĠTenn essee
ĠL am
Ġlik ed
Ġan ch
Ġ187 0
ĠK ings
Ġrecogn ised
Ġexplos ion
ĠMississipp i
ĠS on
ĠB an
Ġadop t
ĠHistor ic
Ġpro l
Ġprofess or
ĠCamp bell
Ġtempor arily
Ġrepres ents
Ġentertain ment
U n
ĠF riend
l ah
Ġs ector
ĠDep ression
ĠPal est
ĠWrit ing
ish ment
Ġro ut
ĠW olf
Ġrepl acing
Ġsequ ences
ĠMont real
ĠLab our
r ator
ip ped
Ġ0 1
Ġfif ty
j o
Ġj azz
ĠR ap
amp s
Ġw reck
Ġoff ering
Ġshell s
ĠS ullivan
Ġart work
Ġw ore
ine a
Ġres idence
over e
Ġmar gin
Ġinterp re
cept ion
Ġprepar ation
ĠT ag
ĠBr un
am ic
if er
ate ur
spec ies
et on
we et
Ġref lected
Ġw el
Ġall iance
Ġrel uct
Ġdirect ors
Ġrest oration
Ġpr ime
ĠB ox
Ġexp ensive
Ġ *
ĠH u
Ġb ot
ĠMiss ouri
ĠF ried
Ġc yl
ĠV inc
ĠCom b
Ġterr or
Ġto uring
Ġover w
iss ions
ĠC ob
Ġcomple ting
Ġamong st
Ġthink ing
ĠRet urn
Ġalco hol
z z
Ġsuggest ing
ĠHal o
Ġp y
ĠW ol
ĠD w
Ġb anks
Ġnuc le
Ġcanc elled
art ney
anc ell
yl an
Ġhor ror
inent al
Ġrebu ilt
b ishop
ĠL ad
Ġcover age
at ics
Ġr ig
ĠIndepend ent
qu es
ar th
ĠD est
ĠSte vens
Ġpul led
and al
Ġdec ides
Ġesc aped
ĠPer form
ĠLuc as
d ale
Ġwas n
Ġam ounts
ĠMarg aret
Ġer upt
ag en
Ġre ven
Ġd imens
ĠSte ven
Ġlack ed
el lect
id el
Ġtrib es
u ary
Ġc ous
Ġr acing
ĠGu ide
Ġdram atic
ĠApp le
Ġb ay
Ġsub t
Ġclear ly
Ġcommunic ation
Ġpattern s
z ona
Ã §
Ġg arden
Ġpred omin
overe ign
Ġfam iliar
Ġeng agement
Ġown ership
Ġarg ues
ĠF iles
ĠCub a
Ġmark s
Ġfr ig
S P
qu ir
f ace
Ġs aved
Ġarm ored
Ġb en
Ġpersp ective
ĠG ab
Ġcolon ies
ĠInd ies
Ġdro ve
Ġcontrib utions
r m
Ġwick et
Ġc od
Ġs olution
ur ally
Ġmerch ant
Ġfast est
Ġtr u
ĠPers ian
Ġplayoff s
ĠWar ren
Ġart istic
Ġadminist rative
r age
Ġremn ants
un ch
ĠMit chell
Ġpr int
Ġcharacter ized
ĠAri zona
Ġfal se
ĠCz ech
id ency
Ġr it
iet ies
Ġbound ary
Ġex ecut
ĠGra ham
Ġr ising
ĠTam il
s ky
Ġse ed
Ġsever ely
S ome
T A
Ġk ings
Ġcrew s
Ġinstit utions
Ġmilit ia
or ious
ok es
Ġarm ament
Ġbad ly
Ġt ag
er k
re p
Ġdisapp oin
Ġdep ending
or ph
ĠM es
ĠD al
Ġret ail
Ġflag ship
ĠM ack
Ġob v
Ġbul k
ĠN ag
Ġear ning
Ġgen etic
Ġdistinct ive
ĠKir k
Ġbow ling
Ġg ang
Ġexpl ains
n o
ĠBure au
ĠMc L
Ġb ronze
Ġrec ip
Ġrank s
Ġrestric ted
ar r
Ġfall en
Ġfr ust
Ġcompar ison
Ġth rew
Ġnot ice
Ġrec on
Ġide al
Ġ0 3
Ġexc av
or er
Ġdemonst rated
Ġrang ing
ĠInit ially
Ġexpl ain
Ġcond em
Ġpo ems
ĠPh oen
ĠConfeder ate
ĠSatur day
n ik
Ġin land
Ġcontrol s
Ġinhabit ants
un c
Ġcon text
Ġdra f
Ġrid ers
st orm
Ġarr ive
ĠEd ge
ĠSc out
c ru
ect ic
ment ed
Ġpract ices
Ġs isters
Ġw ants
ĠM ess
u ations
Ġm ental
om ber
ĠB illy
ĠG rey
Ġk W
Ġ11 5
Ġqu iet
ĠJo h
Ġsat isf
r ating
ol id
Ġcons ervative
ĠDr agon
Ġlo op
itzer land
Ġelect ron
Ġwid er
Ġf aster
Ġman eu
g ate
Ġsh ield
Ġg ap
Ġexc lud
ĠS ony
ĠK u
form ation
Ġsur ge
Ġaut ob
Ġspot ted
r idge
Ġre aches
Ġrev ol
ex p
Ġdistingu ished
Ġp ace
uk i
e qu
Ġpl us
ĠC ow
ĠD om
Ġev olved
Ġnorth ward
ĠHar vey
Ġvul ner
anc hes
iv ia
Ġacc eler
Ġ17 4
ch o
Ġme at
l ife
it ting
Ġapplic ation
ĠBroad way
ĠM aur
C C
Ġsy nd
lah oma
Ġk it
Ġexhib ition
Ġmill imet
Ġquarter back
ath y
Ġ190 1
Ġnomin ations
Ġag ency
Ġ Å
Ġg ate
ĠE P
Ġsub species
Ġprote in
ĠR ing
Ġsatell ite
ock ing
Ġmic ro
Ġdomin ant
Ġprep are
Ġhousehold s
Ġpred icted
rupt ion
Ġpal ace
t a
Ġtri ple
Ġfr ame
ĠFeder ation
ot ton
Ġst orage
Ġsl aves
ĠPri or
ĠMic ro
ĠBus iness
ĠS now
sequ ently
Ġob tain
ĠWil helm
Ġte x
est one
Ġ190 3
ĠSw itzerland
J ohn
Ġab und
ĠAust rian
ĠMag n
Ġprin ted
Ġartic les
Ġatt ained
Ġcar riers
Ġ190 2
Ġrepeated ly
Ġint ellect
Ġpredecess or
in ations
Ġall ies
Ġfix ed
ĠProg ram
ĠH em
Ġst ores
Ġsp r
og a
ĠMar ie
ĠDig ital
Ġver tical
Ġsur gery
ack ed
Ġv s
Ġpe aking
Ġv ast
ĠA BC
Ġphilos ophy
Ġv el
ĠY e
or i
Ġst rict
Ġsign al
Ġbi ographer
Ġadvent ure
ĠL ov
Ġ15 5
Ġblock s
Ġexcell ent
ur er
Ġy ield
r ine
ur d
Ġdis agre
Ġb oss
ĠD ylan
ant on
ĠMr s
az ing
Ġille gal
Ġphen omen
ast s
ĠV is
Ġper ceived
ĠR en
Ġbomb s
Ġserious ly
Ġcho ose
b l
r ates
Ġ Ä
an ian
ĠP rom
ĠS in
Ġpre tty
Ġremark ed
Ġwest ward
Ġap artment
ag asc
ov en
Ġwa iting
ĠL iz
Ġcom fort
Ġ10 1
Ġuse ful
Ã© e
ĠR ico
Ġcircum stances
k es
Ġth or
augh ters
Ġcur ren
ript ions
Ġsurre nd
l ings
Ġmeet ings
ih anna
Ġdrug s
Ġbatt alions
ĠJos h
Ġcoin c
Ġsk et
Ġdoll ar
ĠOk lahoma
Ġt ight
ĠR idge
Ġlay er
ĠE conom
Ġcivil ian
it age
ĠS oon
Ġread ers
Ġarm our
ac on
Ġwh ilst
s k
Ġs ick
im en
Ġph one
ĠMur phy
b re
ĠB aby
Ġmat ters
Ġinstit ution
r us
Ġb reat
Ġcast ing
Ġfriend ship
Ġstrengthen ed
ro v
Ġvis iting
ĠDen mark
Ġt iss
Ġg ust
ĠCh and
Ġplan ets
ĠSm all
ĠOrig inal
ĠC her
Ġrec onnaissance
ĠSe ven
f ish
ph a
Ġsimilar ly
Ġch amber
ĠU E
Ġret ain
Ġsimultane ously
ic ate
ĠN on
ĠK al
s ki
ap olis
Ġleg acy
ĠAbb ey
Ġaltern ate
Ġdem anded
Ġty phoon
ro se
ming ham
ĠTok yo
ar ant
ĠRec ord
ad i
ĠCamp aign
ĠTer rit
ĠHar v
Ġpan el
Ġjust ice
ĠP ed
Ġem pt
Ġenl isted
Ġal ive
Ġ16 8
Ġins isted
ĠAtlant a
r ast
on omy
ĠM ik
Ġship ping
aver y
Ġh orn
ĠBar ry
v is
Ġre vers
ĠPer ry
Ġre venue
Ġro ots
Ġprom ised
Ġdem ands
Ġbomb ing
ĠDel aware
est yle
Ġt ack
ĠBase ball
l us
Ġp unk
Ġposs ess
ĠPri ze
Ġl anes
Ġperson ally
ĠRail road
Ġathlet es
g ro
p an
Ġh ook
Ġcon sole
Ġdr ivers
Ġstrugg led
Ġdefin ition
ent le
Ġmain land
Ġlook s
ĠLes lie
ĠF em
ab s
Ġport ions
Ġconsc ious
ar ation
Ġp ione
Ġorchest ra
ĠD S
um a
Ġback ed
Ġaud ition
ĠA my
Ġs ung
Ġprop ag
T W
Ġcontin u
Ġdem ocr
ĠPit ts
Ġbehavi our
Ġguitar ist
Ġd iver
ag g
ĠIntern et
Ġjob s
Ġart ific
Ġmarket ing
ĠYanke es
ĠS uch
Ġarm ies
d in
in ian
rop h
ĠR ihanna
Ġgu ilty
Ġdemol ished
Ġob lig
ard o
reg ation
Ġd ancing
Ġsur pass
Ġstar ring
ip h
ĠMad agasc
Ġrul ing
ĠB omb
Ġfe els
l ain
Ġincre ases
Ġprof ile
Ġfact ory
ac re
od ox
Ġsub st
Ġhead ing
Ġcomp ens
Ġmin ing
ann on
Ġcount ies
Ġthe ater
Ġin du
az ines
N e
Ġp ages
Ġr ub
Ä ģ
ĠM other
ĠR oll
gh an
Ġbelie ving
Ġorgan isation
Ġess ential
ĠJu an
Ġdiscover s
Ġpurs ue
ind ing
Ġexp ression
Ġdisc ont
Ġbon us
Ġaff ect
Ġdeliver y
ter y
ĠN ik
Ġcl othing
Ġ0 2
Ġmultip l
Ġob st
Ġ16 6
Ġsuc ceed
Ġsh arp
ĠJohn ny
Ġport s
w here
el and
ĠCl ar
c ott
ĠEd wards
Ġmob ile
ĠB h
ĠN ixon
Ġcre st
Ġelev ation
Ġpat ron
ĠHud son
ou ver
em en
Ġac ou
Ġsecret ary
Ġdoub t
Ġo dd
ac c
Ġfore cast
S A
f olk
ĠM uch
Ġk iss
Ġdr ink
ectic ut
Ġacc um
ĠLe x
Ġ10 9
Ġeng age
ĠS oul
ĠH aving
um ps
Ġr if
Ġs q
Ġc up
Ġst ick
Ġhor iz
Ġal tered
ĠF if
ĠL ost
ĠEnter prise
Ġoverse as
tar io
Ġc hest
L C
ter bury
Ġmay or
Ġdeter ior
ĠW or
ĠR u
ĠR ights
Ġdef ences
Ġlist en
ater n
Ġexp and
Ġb aby
ĠIn n
Ġer ected
ir ty
ult an
Ġcomp ounds
Ġcan cel
Ġren ov
Ġsett lers
ĠBudd h
ĠMadagasc ar
Ġb id
ĠBos n
ĠArn old
c les
ĠOn tario
ic ation
Ġst ress
ĠJim my
Ġs alt
sh ore
Ġlegisl ature
Ġmusic ian
gr ad
E C
ot yp
Ġobject ive
ĠJon athan
ĠImp act
in ces
ar o
ĠGr ay
ĠGirl s
ĠT el
ĠB aker
Ġdec isions
Ġhigh ways
Ġra ising
Ġdis l
ĠTr acy
Ġaer ial
ĠAll ies
war f
Ġv oy
Ġafter math
Ġconcent ration
Ġconvers ion
Ġcampaign s
Ġsol ar
ens ively
ĠDef ence
Ġliqu id
Ġor n
Ġsold ier
Ġsit ting
Ġindic ating
ĠOb ama
Ġconsp ir
Ġexact ly
as ant
ow ed
Ġh idden
ĠBr ig
ĠMc M
o ons
Ġw ait
Ġpro ve
Ġorgan ised
Ġwealth y
ĠS et
ĠN ear
Ġsc en
Ġperm itted
ĠConn ecticut
Ġacknowled ged
Ġw restling
Ġd anger
ĠT on
Ġtro uble
Ġh app
ĠC hel
Ġimpro vements
Ġdissip ated
ĠPe ace
Ġgrad uated
Ġstrik ing
Ġd ressed
Ġreal ized
yr us
Ġappropri ate
ĠPhoen ix
f e
ĠT it
Ġconf ron
ĠWay ne
ĠUnivers al
ĠBir mingham
ĠA ld
ĠPr uss
Ġsk i
at ropical
ĠC ra
ĠF at
ĠV ik
Ġrad ical
Ġexec ution
ĠKar l
Ġparen t
ĠJ up
Ġmet er
Ġobserv ations
ĠPear l
Ġraid s
ir ts
Ġremov al
ĠR achel
ĠCan terbury
Ġprof it
Ġtrav els
Ġinterpret ation
b ird
ĠSp art
Ġfew er
ĠMcC artney
Ġcelebr ated
ĠFurther more
Ġven ue
ĠG oth
Ġen cl
Ġpublic ations
ĠWork s
am ents
ok er
ues e
Ġinit iated
Ġagg ressive
in ister
if ies
ra wn
Ġtheat rical
Ġtur ret
ĠR at
Ġchap el
Ġpubl ishing
Ġrequ ires
Ġevac uated
ell i
anc ouver
ĠFr iday
Ġdeb t
Ġfound ing
Ġorig ins
Ġorigin ated
ĠCommun ity
Ġjur isd
m und
ĠP il
Ġstation ed
ĠOut standing
Ġexpl an
ĠP ars
Ġdef ending
Ġestablish ing
Ġcann on
ĠM aj
Ġconn ect
it als
ul ous
Ġconsid ering
Ġrebell ion
iv ation
Ġsh orter
Ġarrang ements
Ġannounce ment
Ġn et
Ġsup ple
Ġbr ill
th a
ract ion
Ġcut ting
ĠPlay ers
r ac
Ġgu arant
Ġt ort
Ġb ones
Ġf antasy
ĠKe ith
Ġstep s
n g
Ġ15 2
Ġmag azines
Ġconn ecting
ĠBoy s
Ġapproach ing
itud es
Ġhost s
aut ical
Ġdon ated
Ġasp ect
Ġextr atropical
st an
Ġpl acing
ad ier
Ġmus h
Ġins ects
Ġmag ic
ĠMount ains
Ġwalk ing
Ġl ying
ĠL ess
Ġstrateg ic
it ively
ĠM ans
Ġon going
ĠP ubl
Ġdiscuss ion
ĠBob by
ol ly
os m
he ars
enn ium
Ġcolle agues
Ġtal ent
Ġl in
ĠL ang
Ġfun ny
S everal
Ġm emor
im p
Ġmon itor
ĠMor rison
ĠV ancouver
Ġout l
ĠSh aw
Ġyoun gest
ĠK it
Ġed ited
ĠDr ive
Ġclos est
ĠCh ampion
Ġpred ict
Ġqual ified
Ġhyp othes
Ġgat hered
ĠAdminist ration
ĠR al
Ġbattle cru
Ġtub es
ĠT rophy
Ġdec ide
Ġ17 3
Ġdr ag
ĠMin t
d ess
p ent
er g
ro us
ĠPortug uese
Ġfor th
ĠG ate
ip per
Ġvol umes
Ġput ting
Ġland scape
Ġwaters hed
ĠEd in
Ġwithdraw al
j an
ov a
Ġstrong est
Ġindic ates
ĠSy mph
Ġang le
ĠPak istan
ĠS em
ĠC ost
ec ution
ĠR ub
ĠD all
Ġgl ac
Ġ186 0
ĠW ag
Ġmark ets
Ġsw itch
Ġred e
Ġident ify
Ġp ale
ĠH ugh
Ġ189 3
ĠFore ign
Ġsuppl ied
ĠTod d
Ġfor g
Ġcirc le
b oy
ĠV e
Ġexp osure
op p
Ġspec imen
Ġmer ely
ĠBern ard
Ġan th
Ġcollaps ed
on ald
ĠCom ple
Ġgr ay
ĠWind ows
Ġchalleng ed
ĠH old
ĠD a
ĠF el
ĠN ine
Ġcap s
Ġconf ront
im ented
Ġpart ial
Ġdens ity
ĠTri ple
ĠGri ff
Ġc ub
ot te
ĠN AS
m i
Ġl es
Ġdes ert
Ġvis its
Ġdub bed
ear ing
Ġsh ift
Ġlim its
M ost
Ġaff ili
Ġfeed ing
ĠJup iter
Ġb are
ĠLe gend
ĠHamp shire
Ġbe am
Ġ189 6
ĠM anu
ĠB ath
ĠCh ampions
Ġprov ision
Ġeduc ational
ĠMet eor
Ġhydro gen
Ġ10 4
Ġconv entional
Ġse ized
A C
ck s
enn a
Ġdu o
ĠNC AA
Ġc reek
Ġsp ac
Ġann ually
ĠRes erve
Ġconcent rated
Ġto pped
Ġbe aring
ĠD iam
ak s
Ġmembers hip
ĠL ion
Ġch ampions
Ġpl ain
so ft
elt a
Ġattend ing
ad al
ĠSt at
Ġcl in
Ġass embly
Ġcor ps
ament al
j oin
Ġpar ody
Ġrang es
Ä į
id al
ir ates
c ase
Ġex ha
Ġc ock
est ed
Ġ189 8
on ium
Ġn avy
ĠH ann
Ġoff ense
Ġdog s
ĠP att
ĠNapole on
d a
ĠChart s
Ġemphas is
ĠEdin burgh
Ġs ad
ĠM ission
ĠAf ghan
Ġweek ly
Ġf urn
ug g
Ġproduct ions
Ġexerc ise
igen ous
M any
Ġun less
ang le
Ġtalk ing
ĠJ ar
Ġinvestig ate
Ġtick et
ĠDw ight
ĠA y
ag ger
Ġbas in
ĠEvent ually
Ġt rough
Ġgr ave
ĠBrad man
uzz le
ter ior
ĠH ur
ather s
Ġleg it
Ġpromot ional
Ġan ime
ĠO pp
hy l
ĠS hip
Ġb acter
ĠC ov
ag h
Ġpri ze
Ġcou p
b ow
ĠM em
Ġportray al
Ġres ol
Ġj ury
Ġce ased
Ġfort ress
Ġflood ed
ĠT NA
Ġadvert ising
h ous
Ġreg ime
Ġf ill
Ġb ond
Ġb one
ĠB i
pl ed
Ġcons ervation
Ġbirth day
ĠVictor ian
ik a
Ġemploy ment
Ġunc le
Ġpers ons
id ae
Ġout put
iet h
Ġ11 1
Ġcru c
ĠDemocr ats
ĠMos c
ĠL aur
ĠG ary
o a
Ġatt itude
Ġsend ing
Ġphotograph s
ell o
Ġret ro
Ġ17 2
Ġsoft ware
Ġb ishop
port ed
Ġev al
ĠCon vention
Ġexperiment al
Ġhit ting
Ġ35 0
Ġquestion ed
ro lled
Ġqu een
Ġgu ide
on ica
ot al
Ġsc attered
Ġdr inking
ĠYork shire
Ġball ad
Ġtransl ation
ĠS ig
au x
ĠVill age
Ġunderw ent
ro ying
Ġ12 7
Ġmat ure
Ġprov incial
Ġunc lear
ĠChronic le
Ġoverw hel
Ġend ors
Ġassemb led
ĠMar vel
Ġco ff
Ġrepl ied
Ġagg reg
Ġcous in
Ġp apers
ĠN O
Ġbr ig
Ġ189 9
Ġrepresent atives
u art
ĠS i
um ble
ph one
Ġlaw yer
ab e
ip er
ĠAl ice
Ġcomment ary
Ġswim ming
ã ĥ
Ġc ens
iff s
D I
Ġimag ery
Ġprocl aim
ĠB eng
Ġcl ock
Ġout d
Ġco at
ĠPot ter
ĠBrother s
Ġthir teen
Ġemp ire
ĠO ur
Ġliber al
ĠPerson al
Ġlov ed
as hes
Ġex ternal
Ġcomp rom
ass ador
ham mad
Ġlaw su
ĠChristian ity
Ġterr ain
ĠCy cl
Ġacou stic
ĠF lying
Ġexclus ive
Ã º
it is
ad ers
Ġsl ave
Ġelectric ity
Ġpict ures
Ġd uration
ĠT ol
Ġst reak
Ġmon aster
Ġd aughters
Ġmov ies
ĠÃĨ thel
Ġw ire
ĠL en
ang el
Ġdev ast
ĠCrit ics
ĠArgent ina
ĠS ak
ĠD ale
Ġbr anches
Ġaccompany ing
Ġsurrend ered
Ġm ac
ĠT ob
ĠC hes
ĠY ears
Ġarr ives
Ġten ure
ĠAb d
ĠS ay
ate ver
ĠL as
Ġstrong er
Ġident ical
Ġbur ial
ic ations
ĠC elt
Ġexper t
h ard
ĠD od
ĠV i
Ġsuccess ion
ĠHon or
ers ed
ĠSe ason
Ġre verse
Ġcomp onents
Ġbe ats
ĠJ oy
Ġd read
ri ors
Ġster e
ĠW ii
Ġchar ter
Ġreve al
ĠFin land
ĠT ype
ĠP in
ĠL ib
ens ed
ann er
ĠDe b
Ġredu cing
Ġreinforce ments
Ġpric es
Ġc ad
Ġm al
pl er
Ġtrad ing
ĠLl oyd
Ġs ang
ĠQueens land
Ġm ask
Ġdest roying
Ġsp aces
Ġfail ing
ĠN atural
Ġsc r
aj a
Ġcompet ing
ĠOl iver
A R
ĠL t
ĠG ene
Ġpen et
Ġmechan ical
Ġexclus ively
ĠL at
olog ies
ĠFle ming
at ched
Ġrec all
Ġ16 9
ĠHer itage
ĠCommun ist
h u
ĠB ach
ĠHawai i
Ġst ops
Ġat omic
red its
ell ation
Ġcomp onent
Ġis ot
Ġsc ar
Ġ10 8
ĠMay a
ĠColl ins
ĠBook s
ĠProt est
Ġprecip itation
g ie
am as
Ġdevelop ers
Ġsl avery
ĠBo at
ĠIs a
Ġ185 0
igr ants
Ġgovern ments
Ġtrad ed
Ġdev ices
1 0
pl ace
ĠMon te
ric ts
ĠAn c
ĠUE FA
ĠF und
ĠBel gian
Ġconsist ent
Ġb anned
Ġre ward
ĠM ong
Ġfoss il
Ġcent ers
Ġmin i
ĠJ ama
ib ilities
Ġvar ied
Ġflow ers
ĠRang ers
Ġel ig
Ġartific ial
Ġt ube
Ġrad iation
ĠMar ge
Ġdec ay
Ġconsid ers
Ġcounter p
Ġplatform s
Ġt ip
ep ing
Ġvir us
O S
ĠEm my
Ġpo le
Ġmy st
Ġred es
Ġcontrib ution
Ġw ish
Ġearthqu ake
ĠMe g
Ġelect rical
ĠNor folk
Ġdis b
Ġpol ar
Ġburn ed
ĠLiber al
p ike
Ġto mb
ĠJ erry
Ġhy br
Ġarchitect ural
Ġd ict
Ġwas te
Ġreview ed
Ġhum or
Ġsongwrit er
ĠTurn er
i oc
Ä ĥ
ĠPri x
Ġboil ers
as m
ĠP ap
Ġpro ceeded
Ġobs c
Ġunderst ood
ĠN a
ist a
Ġfour teen
Ġp ush
Ġadv ised
Ġhand led
Ġfrequ ency
Ġinters ects
Ġtalk s
Ar thur
Ġdestroy er
Ġimpro vement
Ġprofess ion
rast ructure
ur as
et hel
ĠHow e
Ġhe ir
Ġ189 7
ĠTransport ation
d y
ĠP am
ĠHard y
ac les
ĠP ink
Ġam ateur
Ġrequire ments
Ġtex ts
Ġb ath
ĠA x
ĠM alt
Ġthe ore
ĠC ricket
ag s
Ġcop per
ĠServ ices
Ġcon ceived
Ġsam ples
Ġm ent
Ġ16 3
Ġin duct
ĠTh ose
ĠBe aut
ĠTr aining
