{"<|endoftext|>":0,"!":1,"\"":2,"#":3,"$":4,"%":5,"&":6,"'":7,"(":8,")":9,"*":10,"+":11,",":12,"-":13,".":14,"/":15,"0":16,"1":17,"2":18,"3":19,"4":20,"5":21,"6":22,"7":23,"8":24,"9":25,":":26,";":27,"<":28,"=":29,">":30,"?":31,"@":32,"A":33,"B":34,"C":35,"D":36,"E":37,"F":38,"G":39,"H":40,"I":41,"J":42,"K":43,"L":44,"M":45,"N":46,"O":47,"P":48,"Q":49,"R":50,"S":51,"T":52,"U":53,"V":54,"W":55,"X":56,"Y":57,"Z":58,"[":59,"\\":60,"]":61,"^":62,"_":63,"`":64,"a":65,"b":66,"c":67,"d":68,"e":69,"f":70,"g":71,"h":72,"i":73,"j":74,"k":75,"l":76,"m":77,"n":78,"o":79,"p":80,"q":81,"r":82,"s":83,"t":84,"u":85,"v":86,"w":87,"x":88,"y":89,"z":90,"{":91,"|":92,"}":93,"~":94,"¡":95,"¢":96,"£":97,"¤":98,"¥":99,"¦":100,"§":101,"¨":102,"©":103,"ª":104,"«":105,"¬":106,"®":107,"¯":108,"°":109,"±":110,"²":111,"³":112,"´":113,"µ":114,"¶":115,"·":116,"¸":117,"¹":118,"º":119,"»":120,"¼":121,"½":122,"¾":123,"¿":124,"À":125,"Á":126,"Â":127,"Ã":128,"Ä":129,"Å":130,"Æ":131,"Ç":132,"È":133,"É":134,"Ê":135,"Ë":136,"Ì":137,"Í":138,"Î":139,"Ï":140,"Ð":141,"Ñ":142,"Ò":143,"Ó":144,"Ô":145,"Õ":146,"Ö":147,"×":148,"Ø":149,"Ù":150,"Ú":151,"Û":152,"Ü":153,"Ý":154,"Þ":155,"ß":156,"à":157,"á":158,"â":159,"ã":160,"ä":161,"å":162,"æ":163,"ç":164,"è":165,"é":166,"ê":167,"ë":168,"ì":169,"í":170,"î":171,"ï":172,"ð":173,"ñ":174,"ò":175,"ó":176,"ô":177,"õ":178,"ö":179,"÷":180,"ø":181,"ù":182,"ú":183,"û":184,"ü":185,"ý":186,"þ":187,"ÿ":188,"Ā":189,"ā":190,"Ă":191,"ă":192,"Ą":193,"ą":194,"Ć":195,"ć":196,"Ĉ":197,"ĉ":198,"Ċ":199,"ċ":200,"Č":201,"č":202,"Ď":203,"ď":204,"Đ":205,"đ":206,"Ē":207,"ē":208,"Ĕ":209,"ĕ":210,"Ė":211,"ė":212,"Ę":213,"ę":214,"Ě":215,"ě":216,"Ĝ":217,"ĝ":218,"Ğ":219,"ğ":220,"Ġ":221,"ġ":222,"Ģ":223,"ģ":224,"Ĥ":225,"ĥ":226,"Ħ":227,"ħ":228,"Ĩ":229,"ĩ":230,"Ī":231,"ī":232,"Ĭ":233,"ĭ":234,"Į":235,"į":236,"İ":237,"ı":238,"Ĳ":239,"ĳ":240,"Ĵ":241,"ĵ":242,"Ķ":243,"ķ":244,"ĸ":245,"Ĺ":246,"ĺ":247,"Ļ":248,"ļ":249,"Ľ":250,"ľ":251,"Ŀ":252,"ŀ":253,"Ł":254,"ł":255,"Ń":256,"Ġt":257,"he":258,"Ġa":259,"in":260,"Ġthe":261,"er":262,"on":263,"Ġ,":264,"re":265,"Ġs":266,"ed":267,"Ġw":268,"Ġo":269,"nd":270,"at":271,"Ġ.":272,"or":273,"en":274,"Ġc":275,"it":276,"Ġf":277,"is":278,"es":279,"ar":280,"Ġb":281,"Ġof":282,"an":283,"Ġin":284,"al":285,"ing":286,"Ġp":287,"as":288,"Ġand":289,"Ġto":290,"ic":291,"ro":292,"Ġm":293,"Ġd":294,"Ġh":295,"ion":296,"le":297,"ou":298,"Ġre":299,"ĠT":300,"il":301,"ĠS":302,"ent":303,"Ġ\"":304,"Ġ1":305,"Ġth":306,"ĠA":307,"st":308,"Ġl":309,"el":310,"Ġ@":311,"ĠC":312,"Ġe":313,"Ġ=":314,"om":315,"am":316,"Ġn":317,"ad":318,"ac":319,"Ġwas":320,"un":321,"ĠM":322,"Ġon":323,"ec":324,"ly":325,"Ġ'":326,"ĠB":327,"ur":328,"et":329,"id":330,"Ġg":331,"ol":332,"im":333,"-@":334,"Ġ@-@":335,"Ġfor":336,"ir":337,"ig":338,"iv":339,"ot":340,"ter":341,"ut":342,"ĠThe":343,"ĠI":344,"Ġas":345,"ĠH":346,"us":347,"ow":348,"ith":349,"ay":350,"Ġst":351,"Ġ2":352,"Ġhe":353,"ver":354,"ation":355,"ĠP":356,"Ġwith":357,"Ġbe":358,"Ġthat":359,"ce":360,"ĠR":361,"em":362,"ĠD":363,"Ġwh":364,"Ġby":365,"ch":366,"Ġal":367,"th":368,"Ġ)":369,"Ġ(":370,"ĠW":371,"ĠF":372,"Ġis":373,"ul":374,"Ġcon":375,"Ġat":376,"ers":377,"ct":378,"ĠL":379,"ĠG":380,"ain":381,"and":382,"Ġan":383,"Ġ19":384,"ĠN":385,"os":386,"Ġit":387,"her":388,"rom":389,"ag":390,"av":391,"um":392,"est":393,"00":394,"ĠJ":395,"Ġhis":396,"Ġr":397,"unk":398,"ĠE":399,"ri":400,"od":401,"Ġ<":402,"Ġfrom":403,"ist":404,"Ġcom":405,"ap":406,"Ġpro":407,"Ġv":408,"op":409,"if":410,"ore":411,"ill":412,"ld":413,"ĠO":414,"up":415,"ere":416,"ew":417,"res":418,"igh":419,"ies":420,"Ġde":421,"art":422,"ber":423,"ard":424,"ort":425,"Ġse":426,"Ġwere":427,"ich":428,"ate":429,"ak":430,"all":431,"ab":432,"ant":433,"oc":434,"ud":435,"Ġex":436,"ong":437,"qu":438,"Ġor":439,"Ġch":440,"gh":441,"ear":442,"ated":443,"Ġpl":444,"Ġsh":445,"ess":446,"ity":447,"ip":448,"ive":449,"ame":450,"ĠK":451,"Ġâ":452,"Ġhad":453,"ect":454,"ĠIn":455,"ack":456,"ĠU":457,"our":458,"ĠâĢ":459,"Ġsu":460,"red":461,"ast":462,"se":463,"Ġwhich":464,"Ġk":465,"ĠSt":466,"ment":467,"Ġle":468,"ge":469,"und":470,"Ġare":471,"ov":472,"ian":473,"ial":474,"Ġnot":475,"Ġsp":476,"ell":477,"ost":478,"Ġy":479,"ight":480,"Ġtr":481,"ord":482,"ust":483,"ary":484,"ia":485,"ther":486,"rit":487,"pt":488,"ine":489,"Ġ3":490,"oun":491,"ical":492,"ave":493,"pp":494,"ĠCh":495,"Ġ200":496,"cc":497,"Ġun":498,"Ġinc":499,"fter":500,"ould":501,"Ġbut":502,"irst":503,"ish":504,"ous":505,"te":506,"ions":507,"so":508,"Ġcomp":509,"ff":510,"Ġ20":511,"ide":512,"Ġro":513,"Ġwhe":514,"ure":515,"ĠV":516,"Ġar":517,"Ġcont":518,"ra":519,"ub":520,"Ġ;":521,"Ġfirst":522,"ign":523,"Ġcl":524,"wo":525,"Ġher":526,"ie":527,"Ġits":528,"Ġtheir":529,"ue":530,"og":531,"ĠâĢĵ":532,"orm":533,"ass":534,"ork":535,"Ġint":536,"Ġres":537,"Ġ:":538,"ok":539,"ater":540,"Ġalso":541,"Ġab":542,"Ġad":543,"ome":544,"ond":545,"out":546,"age":547,"ĠHe":548,"ry":549,"mer":550,"ire":551,"hed":552,"Ġus":553,"du":554,"The":555,"ime":556,"low":557,"ru":558,"Ġper":559,"Ġ4":560,"per":561,"ans":562,"Ġwho":563,"Ġone":564,"Ġhave":565,"Ġsc":566,"Ġ5":567,"pl":568,"ally":569,"own":570,"ile":571,"ance":572,"Ġrec":573,"ted":574,".@":575,"Ġ@.@":576,"Ġ18":577,"Ġtwo":578,"ition":579,"ugh":580,"ree":581,"ence":582,"uring":583,"ĠTh":584,"port":585,"Ġbeen":586,"Ġpart":587,"Ġbec":588,"ts":589,"Ġhas":590,"ice":591,"iz":592,"Ġag":593,"Ġapp":594,",@":595,"Ġ@,@":596,"ough":597,"Ġ201":598,"Ġen":599,"Ġj":600,"Ġdis":601,"lud":602,"Ġover":603,"Ġthis":604,"Ġser":605,"ory":606,"Ġyear":607,"ely":608,"ations":609,"are":610,"ember":611,"ction":612,"ound":613,"ke":614,"Ġoff":615,"Ġafter":616,"Ġup":617,"ach":618,"Ġplay":619,"Ġdes":620,"land":621,"ace":622,"over":623,"ĠAl":624,"ark":625,"ric":626,"Ġout":627,"Ġthey":628,"Ġte":629,"ade":630,"ĠIt":631,"Ġother":632,"act":633,"Ġman":634,"ib":635,"Ġim":636,"ult":637,"Ġinclud":638,"ress":639,"ced":640,"ail":641,"urn":642,"wn":643,"Ġwould":644,"ens":645,"ĠY":646,"ind":647,"Ġtime":648,"Ġinto":649,"man":650,"Ġpre":651,"ang":652,"one":653,"ward":654,"ep":655,"Ġhim":656,"Ġwe":657,"oin":658,"we":659,"ite":660,"ates":661,"Ġshe":662,"ĠUn":663,"Ġ6":664,"les":665,"ren":666,"Ġev":667,"able":668,"Ġatt":669,"ased":670,"ilm":671,"ited":672,"end":673,"amp":674,"ever":675,"ied":676,"ase":677,"Ġcomm":678,"ors":679,"Ġinter":680,"rough":681,"ount":682,"oy":683,"form":684,"ne":685,"ons":686,"Ġall":687,"Ġmore":688,"Ġwork":689,"ood":690,"ces":691,"Ġ7":692,"ered":693,"old":694,"aw":695,"ings":696,"vel":697,"ild":698,"Ġnew":699,"Ġsec":700,"Ġbet":701,"ĠAr":702,"ick":703,"ose":704,"Ġwhen":705,"Ġfilm":706,"inal":707,"ve":708,"Ġfe":709,"ents":710,"ious":711,"ake":712,"way":713,"aus":714,"fer":715,"att":716,"reat":717,"ft":718,"Ġcons":719,"iss":720,"round":721,"Ġ8":722,"Ġrem":723,"gan":724,"rib":725,"rop":726,"ved":727,"ĠAn":728,"ĠMar":729,"ason":730,"Ġdec":731,"Ġduring":732,"Ġund":733,"orth":734,"ubl":735,"Ġagain":736,"hip":737,"Ġmost":738,"Ġgame":739,"Ġpr":740,"Ġ9":741,"Ġthem":742,"Ġonly":743,"oth":744,"ween":745,"Ġ199":746,"Ġear":747,"ix":748,"ollow":749,"Ġthan":750,"ath":751,"Ġsup":752,"Ġne":753,"ational":754,"fore":755,"Ġabout":756,"Ġprodu":757,"ob":758,"Ġcent":759,"ss":760,"Ġret":761,"tern":762,"Ġchar":763,"Ġsong":764,"Ġcan":765,"ĠNew":766,"ĠSe":767,"outh":768,"ug":769,"Ġbetween":770,"Ġlater":771,"Ġrele":772,"Ġunder":773,"Ġthree":774,"Ġkn":775,"ict":776,"Ġcol":777,"Ġact":778,"ton":779,"iew":780,"aid":781,"Ġ00":782,"ron":783,"Ġthrough":784,"als":785,"hn":786,"Ġqu":787,"orld":788,"Ġnum":789,"ook":790,"Ġso":791,"Ġacc":792,"Ġme":793,"Ġrel":794,"Ġwhile":795,"Ġend":796,"ĠEn":797,"meric":798,"In":799,"ank":800,"lect":801,"Ġfl":802,"ĠAmeric":803,"ters":804,"Ġpos":805,"ral":806,"ock":807,"Ġsub":808,"ning":809,"Ġass":810,"ĠLe":811,"ular":812,"ating":813,"Ġwhere":814,"Ġver":815,"Ġday":816,"Ġreg":817,"Ġsecond":818,"Ġbu":819,"ener":820,"Ġmade":821,"ames":822,"ision":823,"ived":824,"ck":825,"Ġpe":826,"Ġrecord":827,"Ġdef":828,"bum":829,"ĠRe":830,"Ġfour":831,"Ġgro":832,"ĠCom":833,"Ġfollow":834,"Ġseason":835,"Ġ000":836,"Ġform":837,"Ġsome":838,"Ġep":839,"Ġsuch":840,"son":841,"ished":842,"Ġam":843,"Ġmov":844,"ool":845,"Ġbefore":846,"ained":847,"Ġmus":848,"Ġwrit":849,"Ġthere":850,"hes":851,"ph":852,"Ġspec":853,"ics":854,"ike":855,"Ġyears":856,"Ġteam":857,"Ġ10":858,"iel":859,"Ġsy":860,"io":861,"ode":862,"Ġ/":863,"ident":864,"ual":865,"Ġlar":866,"ĠSp":867,"Ġalbum":868,"ĠOn":869,"Ġind":870,"owever":871,"ily":872,"ĠJo":873,"Ġused":874,"Ġent":875,"Ġgr":876,"hen":877,"Ġcall":878,"Ġsur":879,"ific":880,"Ġhigh":881,"Ġac":882,"Ġpubl":883,"ury":884,"Ġbeing":885,"ĠThis":886,"Ġepis":887,"Ġthen":888,"ll":889,"orn":890,"velop":891,"Ġdo":892,"Ġloc":893,"ten":894,"Ġexp":895,"ife":896,"Ġagainst":897,"Ġinv":898,"Ġ17":899,"aj":900,"other":901,"ris":902,"Ġpres":903,"Ġbl":904,"ĠSh":905,"anc":906,"Ġnumber":907,"Ġshow":908,"Ġcharac":909,"ane":910,"Ġsever":911,"Ġ0":912,"Ġadd":913,"Ġset":914,"Ġco":915,"ince":916,"Ġbecame":917,"Ġrece":918,"ject":919,"ause":920,"ale":921,"Ġlead":922,"Ġperform":923,"ĠBrit":924,"Ġincluding":925,"Ġbr":926,"Ġsing":927,"ars":928,"Ġno":929,"ather":930,"ĠâĢĶ":931,"erm":932,"Ġfound":933,"Ġwell":934,"ines":935,"ek":936,"ĠUnited":937,"Ġrep":938,"ĠAt":939,"Ġmon":940,"Ġpol":941,"air":942,"Ġback":943,"Ġboth":944,"Ġseries":945,"Ġcap":946,"ĠAs":947,"Ġ15":948,"Ġ198":949,"ober":950,"Ġ12":951,"Ġship":952,"ier":953,"ower":954,"ement":955,"ired":956,"ures":957,"ĠSc":958,"its":959,"Ġmain":960,"ivers":961,"Ġ194":962,"ert":963,"Ġmin":964,"pen":965,"ley":966,"overn":967,"Ġdid":968,"iet":969,"Ġgo":970,"der":971,"Ġcre":972,"elf":973,"Ġdevelop":974,"Ġimp":975,"led":976,"ram":977,"ities":978,"Ġlong":979,"Ġmet":980,"ĠShe":981,"ik":982,"iver":983,"ised":984,"any":985,"ĠEng":986,"ven":987,"olog":988,"ĠCon":989,"ting":990,"ared":991,"Ġmill":992,"ird":993,"Ġem":994,"Ġair":995,"uch":996,"ful":997,"Ġmat":998,"Ġepisode":999,"tend":1000,"az":1001,"irect":1002,"Ġsaid":1003,"Ġstud":1004,"Ġmany":1005,"Ġbro":1006,"ute":1007,"ann":1008,"Ġdep":1009,"Ġcould":1010,"ative":1011,"Ġorig":1012,"Ġcar":1013,"Ġcontin":1014,"Ġwar":1015,"Ġseveral":1016,"Ġ16":1017,"though":1018,"Ġdif":1019,"ĠJohn":1020,"Ġinst":1021,"Ġpop":1022,"ĠAmerican":1023,"ash":1024,"ouse":1025,"ield":1026,"Ġknown":1027,"emb":1028,"ise":1029,"Ġ197":1030,"ĠInd":1031,"ty":1032,"ually":1033,"Ġconc":1034,"til":1035,"Ġ196":1036,"ĠWh":1037,"ĠCl":1038,"Ġ11":1039,"iam":1040,"view":1041,"ĠAust":1042,"ins":1043,"erson":1044,"Ġob":1045,"ued":1046,"Ġreturn":1047,"Ġbegan":1048,"Ġsm":1049,"Ġany":1050,"Ġcomple":1051,"Ġdesign":1052,"ĠWar":1053,"ĠBr":1054,"Ġdesc":1055,"Ġsign":1056,"ople":1057,"chool":1058,"ross":1059,"ange":1060,"my":1061,"Ġest":1062,"aking":1063,"ccess":1064,"Ġtrans":1065,"Ġprov":1066,"hy":1067,"Ġfeat":1068,"oot":1069,"Ġinf":1070,"Ġrun":1071,"Ġearly":1072,"ah":1073,"ern":1074,"Ġart":1075,"Ġmusic":1076,"Ġown":1077,"Ġdist":1078,"Ġnear":1079,"Ġreleased":1080,"ided":1081,"ĠFr":1082,"Ġuntil":1083,"rap":1084,"Ġcalled":1085,"ized":1086,"ism":1087,"Ġeff":1088,"ĠAfter":1089,"imes":1090,"Ġresp":1091,"ĠDe":1092,"Ġbel":1093,"Ġpass":1094,"une":1095,"ured":1096,"stem":1097,"Ġfin":1098,"ially":1099,"ĠBl":1100,"ists":1101,"Ġdown":1102,"ĠUS":1103,"ution":1104,"ĠCol":1105,"ĠMay":1106,"Ġdisc":1107,"Ġcrit":1108,"ments":1109,"osed":1110,"Ġdirect":1111,"ĠZ":1112,"Ġgener":1113,"ĠBe":1114,"Ġalong":1115,"xt":1116,"Ġins":1117,"Ġmillion":1118,"Ġprev":1119,"erman":1120,"Ġgroup":1121,"Ġoffic":1122,"Ġfam":1123,"ĠBritish":1124,"enn":1125,"Ġthese":1126,"Ġ13":1127,"ajor":1128,"ium":1129,"Ġmod":1130,"ull":1131,"Ġmay":1132,"ax":1133,"Ġ$":1134,"Ġopen":1135,"cept":1136,"Ġmil":1137,"Ġpoin":1138,"els":1139,"ains":1140,"eb":1141,"Ġland":1142,"gest":1143,"Ġsim":1144,"Ġhist":1145,"Ġgovern":1146,"ger":1147,"ĠAug":1148,"ĠSept":1149,"Ġsuccess":1150,"Ġstr":1151,"erv":1152,"ĠSeptember":1153,"ĠAugust":1154,"ĠStates":1155,"Ġoper":1156,"Ġcount":1157,"Ġattack":1158,"ible":1159,"uc":1160,"Ġgu":1161,"Ġsame":1162,"Ġuse":1163,"wards":1164,"Ġdescrib":1165,"Ġpeople":1166,"ets":1167,"ĠWorld":1168,"Ġcharacter":1169,"aced":1170,"Ġbecause":1171,"amed":1172,"ink":1173,"ĠAp":1174,"ĠAd":1175,"aining":1176,"Ġlike":1177,"yp":1178,"Ġserv":1179,"Ġ14":1180,"Ġaround":1181,"Ġstart":1182,"Ġthough":1183,"aving":1184,"ĠJu":1185,"Ġed":1186,"Ġkm":1187,"Ġwin":1188,"Ġ195":1189,"Ġconst":1190,"Ġtook":1191,"Ġocc":1192,"ues":1193,"ruct":1194,"Ġbatt":1195,"ĠIs":1196,"ner":1197,"ĠOct":1198,"Ġsupport":1199,"ove":1200,"ped":1201,"ĠAustral":1202,"Ġfollowing":1203,"Ġdr":1204,"Ġsix":1205,"Ġnorth":1206,"ĠGerman":1207,"Ġele":1208,"ĠNov":1209,"Ġ193":1210,"Ġsystem":1211,"Ġappear":1212,"Ã©":1213,"Ġfinal":1214,"Ġreceived":1215,"Ġclass":1216,"ey":1217,"uss":1218,"ĠAll":1219,"ĠPl":1220,"ĠOctober":1221,"Ġconsid":1222,"Ġprom":1223,"Ġhead":1224,"ives":1225,"Ġann":1226,"ĠQ":1227,"ants":1228,"ĠTr":1229,"ility":1230,"Ġstate":1231,"Ġever":1232,"Ġbuild":1233,"Ġ191":1234,"ene":1235,"ĠHowever":1236,"Ġeach":1237,"ĠCar":1238,"ically":1239,"ĠDec":1240,"ĠFor":1241,"Ġfive":1242,"ling":1243,"Ġadv":1244,"Ġext":1245,"anu":1246,"Ġcentury":1247,"Ġaut":1248,"Ġarea":1249,"ret":1250,"Ġwill":1251,"Ġvar":1252,"ĠYork":1253,"Ġsmall":1254,"ĠPro":1255,"ately":1256,"Ġbo":1257,"Ġpartic":1258,"Ġlife":1259,"gin":1260,"iving":1261,"Ġreport":1262,"get":1263,"Ġ]":1264,"ĠThey":1265,"ored":1266,"tle":1267,"oss":1268,"ĠNorth":1269,"ording":1270,"ĠJune":1271,"ril":1272,"Ġcity":1273,"Ġ[":1274,"Ġcontro":1275,"Ġmajor":1276,"Ġweek":1277,"Ġpublic":1278,"ians":1279,"Ġmar":1280,"Ġ%":1281,"ĠJuly":1282,"ission":1283,"Ġconf":1284,"Ġband":1285,"ection":1286,"Ġref":1287,"ĠNovember":1288,"ĠKing":1289,"med":1290,"urch":1291,"Ġrest":1292,"Ġworld":1293,"Ġsince":1294,"inc":1295,"Ġmed":1296,"Ġsingle":1297,"ina":1298,"raft":1299,"esp":1300,"ĠApril":1301,"por":1302,"ĠComm":1303,"lish":1304,"Ġdet":1305,"Ġjust":1306,"ried":1307,"ĠMarch":1308,"Ġlast":1309,"ected":1310,"omet":1311,"hest":1312,"ĠMe":1313,"ural":1314,"ional":1315,"Ġturn":1316,"ĠHar":1317,"ively":1318,"Ġallow":1319,"aim":1320,"Ġhel":1321,"ilt":1322,"ĠWill":1323,"ient":1324,"Ġarr":1325,"Ġ30":1326,"Ġpo":1327,"Ġleft":1328,"ague":1329,"Ġlarge":1330,"ĠCan":1331,"Ġline":1332,"Ġdiffer":1333,"idge":1334,"ĠPr":1335,"Ġcare":1336,"cl":1337,"Ġsouth":1338,"ales":1339,"ified":1340,"rist":1341,"Ġbook":1342,"Ġvers":1343,"ĠEd":1344,"Ġschool":1345,"empt":1346,"ĠSouth":1347,"..":1348,"Ġthird":1349,"ĠDecember":1350,"ĠGr":1351,"avy":1352,"Ġsl":1353,"ble":1354,"Ġincre":1355,"ats":1356,"ĠMc":1357,"Ġmonth":1358,"Ġdue":1359,"Ġappro":1360,"ined":1361,"Ġplayed":1362,"ĠBro":1363,"Ġmuch":1364,"Ġevent":1365,"rote":1366,"Ġanother":1367,"Ġif":1368,"Ġ25":1369,"anuary":1370,"Ġincluded":1371,"Ġwhat":1372,"ĠJanuary":1373,"Ġ192":1374,"Ġbased":1375,"Ġplace":1376,"eng":1377,"ĠGe":1378,"Ġshort":1379,"aged":1380,"row":1381,"by":1382,"Ġgovernment":1383,"ĠII":1384,"Ġexpl":1385,"ograp":1386,"Ġperson":1387,"Ġwrote":1388,"Ġtrack":1389,"ony":1390,"ball":1391,"Ġcamp":1392,"Ġold":1393,"Ġtit":1394,"ney":1395,"Ġname":1396,"apan":1397,"ĠOr":1398,"Ġdeath":1399,"Ġbre":1400,"ently":1401,"alf":1402,"Ġport":1403,"Ġph":1404,"ages":1405,"Ġelect":1406,"Ġwon":1407,"ple":1408,"ience":1409,"Ġchild":1410,"ĠEu":1411,"ĠJapan":1412,"Ġlit":1413,"Ġprot":1414,"ĠPh":1415,"Ġkill":1416,"Ġ...":1417,"Ġeng":1418,"Ġstory":1419,"Ġprog":1420,"ideo":1421,"Ġpower":1422,"oad":1423,"Ġreview":1424,"ody":1425,"ĠBy":1426,"Ġvis":1427,"Ġhome":1428,"ital":1429,"Ġled":1430,"Ġdescribed":1431,"Ġprevious":1432,"Ġrequ":1433,"Ġcour":1434,"Ġfamily":1435,"Ġgun":1436,"oman":1437,"Ġway":1438,"ott":1439,"Ġnamed":1440,"Ġright":1441,"Ġnow":1442,"urther":1443,"Ġdem":1444,"Ġeven":1445,"iven":1446,"Ġmake":1447,"iod":1448,"Ġmen":1449,"embers":1450,"ilar":1451,"ĠTe":1452,"Ġleg":1453,"ged":1454,"iversity":1455,"Ġattempt":1456,"ister":1457,"reen":1458,"Ġbest":1459,"ention":1460,"ont":1461,"itions":1462,"omin":1463,"Ġrepl":1464,"ivision":1465,"Ġopp":1466,"ĠÂ":1467,"Ġgames":1468,"cy":1469,"Ġ100":1470,"rench":1471,"aff":1472,"ached":1473,"ĠMus":1474,"Ġterm":1475,"Ġcommand":1476,"Ġtop":1477,"ior":1478,"Ġhand":1479,"Ġposs":1480,"ival":1481,"Ġbelie":1482,"Ġvery":1483,"Ġdam":1484,"Ġthose":1485,"ness":1486,"ebru":1487,"mp":1488,"sh":1489,"ebruary":1490,"Ġiss":1491,"Ġstill":1492,"ĠFebruary":1493,"ĠGu":1494,"Ġorgan":1495,"ĠEurop":1496,"Ġnext":1497,"Ġspecies":1498,"Ġeffect":1499,"Ġview":1500,"riend":1501,"ances":1502,"self":1503,"Ġpar":1504,"Ġcapt":1505,"aken":1506,"lu":1507,"Ġoriginal":1508,"oci":1509,"ps":1510,"ature":1511,"Ġspe":1512,"ences":1513,"ĠNational":1514,"Ġwater":1515,"Ġaddition":1516,"Ġjoin":1517,"ox":1518,"ched":1519,"ĠChrist":1520,"Ġlist":1521,"ery":1522,"Ġwithin":1523,"Ġperiod":1524,"ĠEurope":1525,"Ġmembers":1526,"Ġmark":1527,"hor":1528,"Ġheld":1529,"Ġbuilt":1530,"ĠAnd":1531,"Ġdeb":1532,"Ġexper":1533,"ĠHis":1534,"Ġrelease":1535,"Ġalthough":1536,"Ġlate":1537,"Ġformer":1538,"ĠFrench":1539,"Ġgreat":1540,"Ġmatch":1541,"Ġ2010":1542,"ĠFl":1543,"rew":1544,"alk":1545,"Ġsold":1546,"lev":1547,"Ġdest":1548,"augh":1549,"uted":1550,"Ġcur":1551,"tended":1552,"Ġvideo":1553,"line":1554,"Ġcaus":1555,"Ġstorm":1556,"ĠWe":1557,"ented":1558,"ring":1559,"ards":1560,"Ġcover":1561,"Ġinit":1562,"Ġrole":1563,"ropical":1564,"Ġ21":1565,"Ġcame":1566,"Ġestab":1567,"Ġav":1568,"Ġdays":1569,"Ġtri":1570,"Ġresult":1571,"af":1572,"Ġmid":1573,"ĠBar":1574,"ĠWest":1575,"ption":1576,"Ġstand":1577,"Ġreal":1578,"Ġpolit":1579,"ulation":1580,"ĠPar":1581,"ides":1582,"ech":1583,"Ġhowever":1584,"ler":1585,"ĠWhen":1586,"hel":1587,"itary":1588,"au":1589,"oon":1590,"Ġcr":1591,"Ġmy":1592,"Ġ2008":1593,"Ġprop":1594,"Ġfew":1595,"Ġtown":1596,"aster":1597,"ĠWilliam":1598,"Ġwind":1599,"Ġ2009":1600,"ense":1601,"Ġyou":1602,"Ġside":1603,"ead":1604,"Ġtw":1605,"Ġcontinued":1606,"Ġoften":1607,"akes":1608,"atic":1609,"na":1610,"ham":1611,"Ġ24":1612,"Ġequ":1613,"Ġlocal":1614,"ĠX":1615,"Ġsk":1616,"tal":1617,"Ġpost":1618,"omb":1619,"Ġamong":1620,"ĠMin":1621,"Ġsay":1622,"Ġsimilar":1623,"Ġ2011":1624,"ruction":1625,"side":1626,"Ġclaim":1627,"Ġhum":1628,"elt":1629,"gy":1630,"estern":1631,"ĠAm":1632,"Ġ&":1633,"omen":1634,"ator":1635,"ĠMan":1636,"reet":1637,"ĠAir":1638,"Ġdifferent":1639,"br":1640,"ĠGeor":1641,"ract":1642,"Ġsug":1643,"ĠEngland":1644,"read":1645,"let":1646,"Ġbeh":1647,"Ġdel":1648,"Ġfurther":1649,"Ġtyp":1650,"ying":1651,"ese":1652,"Ġsent":1653,"Ġlevel":1654,"ves":1655,"Ġconsidered":1656,"Ġtake":1657,"ĠDuring":1658,"Ġlaw":1659,"ology":1660,"Ġfre":1661,"ĠChar":1662,"ops":1663,"Ġcareer":1664,"ĠHer":1665,"Ġ22":1666,"eter":1667,"par":1668,"Ġ2007":1669,"ots":1670,"ĠMich":1671,"Ġproduction":1672,"rodu":1673,"esc":1674,"Ġhalf":1675,"urs":1676,"ĠEar":1677,"uck":1678,"ices":1679,"Ġhaving":1680,"On":1681,"ampions":1682,"ĠCity":1683,"ms":1684,"app":1685,"ĠPark":1686,"ung":1687,"Ġmoved":1688,"Ġeast":1689,"Ġroad":1690,"ĠNo":1691,"Ġmag":1692,"Ġant":1693,"ĠEnglish":1694,"yl":1695,"Ġwithout":1696,"Ġevery":1697,"Ġwest":1698,"me":1699,"ĠThere":1700,"ering":1701,"Ġcor":1702,"Ġappe":1703,"Ġplayer":1704,"Ġposition":1705,"Ġbecome":1706,"Ġplan":1707,"sp":1708,"Ġhistory":1709,"ĠDav":1710,"Ġversion":1711,"Ġconv":1712,"ĠRec":1713,"Ġ2012":1714,"ondon":1715,"bo":1716,"ront":1717,"ĠCent":1718,"Ġcast":1719,"Ġinflu":1720,"ĠCount":1721,"Ġel":1722,"Ġhouse":1723,"vers":1724,"Ġsound":1725,"ĠEl":1726,"ford":1727,"Ġcommun":1728,"ĠCo":1729,"ones":1730,"ĠLondon":1731,"Ġfore":1732,"yle":1733,"Ġsuggest":1734,"Ġclub":1735,"ize":1736,"ĠAng":1737,"Ġ23":1738,"Ġstrong":1739,"Ġinvol":1740,"irc":1741,"Ġwritten":1742,"ches":1743,"atter":1744,"ĠBatt":1745,"Ġ190":1746,"Ġless":1747,"Ġbas":1748,"aul":1749,"Ġstat":1750,"Ġannoun":1751,"utes":1752,"ĠCal":1753,"Ġfoot":1754,"Ġorder":1755,"ape":1756,"Ġrefer":1757,"iety":1758,"ĠRiver":1759,"rest":1760,"Ġprof":1761,"Ġpoint":1762,"craft":1763,"sequ":1764,"Ġgiven":1765,"Ġaff":1766,"Ġtem":1767,"Ġlow":1768,"Ġtrad":1769,"Ġhig":1770,"ĠCanad":1771,"Ġwant":1772,"Ġgave":1773,"Ġrad":1774,"iqu":1775,"Ġke":1776,"ĠUniversity":1777,"rent":1778,"Ġfar":1779,"Ġimport":1780,"Ġnever":1781,"Ġtro":1782,"ald":1783,"Ġchang":1784,"Ġdefe":1785,"ailed":1786,"Ġreturned":1787,"Ġpat":1788,"Ġsoc":1789,"ories":1790,"Ġrepres":1791,"Ġtotal":1792,"ĠOne":1793,"Ġvict":1794,"Ġfact":1795,"Ġgood":1796,"Ġcontrol":1797,"Ġcompany":1798,"Ġwent":1799,"Ġcountry":1800,"Ġcomb":1801,"Ġfire":1802,"Ġfriend":1803,"cess":1804,"aly":1805,"ĠGener":1806,"roy":1807,"Ġpublished":1808,"Ġhour":1809,"ison":1810,"Ġproduced":1811,"ges":1812,"levision":1813,"Ġfind":1814,"Ġreported":1815,"aun":1816,"ĠHigh":1817,"Ġorigin":1818,"isc":1819,"Ġyoun":1820,"ably":1821,"Ġlost":1822,"Ġstated":1823,"aign":1824,"Ġcommon":1825,"ĠPol":1826,"Ġprogram":1827,"Ġ2006":1828,"ille":1829,"Ġparticular":1830,"Ġlight":1831,"ai":1832,"Ġord":1833,"Ġadm":1834,"con":1835,"err":1836,"Ġinclude":1837,"ington":1838,"ccording":1839,"echn":1840,"urric":1841,"Ġcompet":1842,"Ġrecorded":1843,"used":1844,"Ġbuilding":1845,"hing":1846,"Ġpress":1847,"gr":1848,"ief":1849,"Ġneed":1850,"Ġproject":1851,"Ġforces":1852,"Ġbus":1853,"yn":1854,"Ġnort":1855,"Ġships":1856,"Ġshould":1857,"Ġusing":1858,"Ġeight":1859,"Ġinterest":1860,"Ġperformance":1861,"aren":1862,"Ġservice":1863,"Ġpopular":1864,"Ġide":1865,"ploy":1866,"Ġtimes":1867,"Ġ27":1868,"iment":1869,"raw":1870,"Ġ50":1871,"Ġmaking":1872,"ĠSm":1873,"Ġ28":1874,"ĠEx":1875,"Ġaircraft":1876,"Ġten":1877,"Ġhimself":1878,"Ġauthor":1879,"oyal":1880,"Ġfather":1881,"Ġmilitary":1882,"tain":1883,"iness":1884,"Ġ2013":1885,"osp":1886,"Ġbattle":1887,"Ġanim":1888,"ampionship":1889,"lear":1890,"Ġsit":1891,"ned":1892,"Ġsongs":1893,"Ġlim":1894,"Ġsomet":1895,"atch":1896,"Ġfr":1897,"Ġread":1898,"outher":1899,"ae":1900,"ĠAustralia":1901,"Ġcritic":1902,"ensive":1903,"Ġdevelopment":1904,"play":1905,"ither":1906,"ords":1907,"Ġhow":1908,"ĠSw":1909,"ĠSec":1910,"ĠAf":1911,"ĠAss":1912,"alth":1913,"Ġsw":1914,"itive":1915,"quad":1916,"olution":1917,"Ġ40":1918,"ĠAb":1919,"ĠThese":1920,"outhern":1921,"eder":1922,"ef":1923,"ases":1924,"Ġgl":1925,"ĠJack":1926,"Ġcross":1927,"ĠPres":1928,"Ġ26":1929,"Ġ189":1930,"Ġground":1931,"Ġft":1932,"cer":1933,"Ġstar":1934,"Ġremained":1935,"astern":1936,"ĠGeneral":1937,"acy":1938,"ĠState":1939,"Ġcharacters":1940,"oll":1941,"ĠArmy":1942,"Ġnational":1943,"Ġget":1944,"ĠCor":1945,"Ġste":1946,"Ġmonths":1947,"Ġsuff":1948,"Ġpresent":1949,"Ġdied":1950,"rick":1951,"Ġgen":1952,"Ġdeveloped":1953,"ries":1954,"ublic":1955,"Ġtitle":1956,"work":1957,"Ġsum":1958,"Ġfun":1959,"Ġchart":1960,"dom":1961,"Ġcampaign":1962,"urricane":1963,"ĠNe":1964,"ĠSy":1965,"Ġforce":1966,"Ġchildren":1967,"ument":1968,"fic":1969,"ream":1970,"Ġintrodu":1971,"ration":1972,"ĠDr":1973,"ĠLeague":1974,"bs":1975,"Ġtour":1976,"Ġpromot":1977,"ency":1978,"ĠJames":1979,"itted":1980,"eth":1981,"Ġsignific":1982,"Ġacross":1983,"isted":1984,"lands":1985,"Ġson":1986,"Ġaway":1987,"ression":1988,"Ġrelations":1989,"ĠComp":1990,"ael":1991,"Ġred":1992,"hern":1993,"Ġobs":1994,"ĠAlthough":1995,"Ġofficial":1996,"Ġfield":1997,"Ġhistor":1998,"Ġfav":1999,"Ġpra":2000,"ĠDivision":2001,"Ġfelt":2002,"aur":2003,"lege":2004,"ĠAmerica":2005,"ĠBo":2006,"Ġnoted":2007,"ĠWith":2008,"Ġfac":2009,"most":2010,"Ġnight":2011,"Ġannounced":2012,"Ġreached":2013,"Ġintern":2014,"Ġcreated":2015,"ĠGl":2016,"Ġareas":2017,"Ġdestroy":2018,"ĠCounty":2019,"Ġtelevision":2020,"ask":2021,"Ġstation":2022,"ole":2023,"ĠRuss":2024,"Ġche":2025,"alt":2026,"Ġcoun":2027,"Ġsuccessful":2028,"ressed":2029,"ĠRoad":2030,"Ġrock":2031,"Ġ2005":2032,"ĠJapanese":2033,"imately":2034,"Ġask":2035,"Ġarm":2036,"vent":2037,"Ġvarious":2038,"ĠâĢĻ":2039,"Ġval":2040,"ĠStreet":2041,"Ġpolitical":2042,"Ġseen":2043,"reg":2044,"Ġfollowed":2045,"omp":2046,"Ġaver":2047,"ĠRep":2048,"Ġtoo":2049,"Ġbar":2050,"Ġrank":2051,"Ġtrav":2052,"lin":2053,"Ġperformed":2054,"iting":2055,"ising":2056,"Ġcult":2057,"Ġserved":2058,"Ġplayers":2059,"cast":2060,"iber":2061,"Ġcond":2062,"Ġfull":2063,"Ġ2014":2064,"Ġbegin":2065,"Ġrev":2066,"Ġprim":2067,"Ġ29":2068,"ope":2069,"ĠSim":2070,"Ġblack":2071,"ality":2072,"duct":2073,"elling":2074,"Ġfle":2075,"Ġput":2076,"Ġearl":2077,"Ġcirc":2078,"abor":2079,"ĠMor":2080,"ĠWhile":2081,"field":2082,"Ġcost":2083,"idence":2084,"ĠEast":2085,"ĠSup":2086,"Ġsol":2087,"Ġsee":2088,"Ġprocess":2089,"Ġstyle":2090,"Ġlook":2091,"ĠMad":2092,"Ġtest":2093,"ization":2094,"Ġdiv":2095,"Ġseven":2096,"Ġenc":2097,"reek":2098,"Ġkilled":2099,"Ġaud":2100,"ays":2101,"ĠMon":2102,"ĠSte":2103,"Ġhelp":2104,"rict":2105,"lished":2106,"Ġlet":2107,"Ġthroughout":2108,"ĠReg":2109,"Ġvol":2110,"Ġtaken":2111,"Ġtropical":2112,"Ġable":2113,"Ġfight":2114,"Ġdiscover":2115,"Ġnon":2116,"Ġagre":2117,"Ġlittle":2118,"ertain":2119,"ecut":2120,"Ġwid":2121,"Ġbecom":2122,"Ġcy":2123,"Ġsignificant":2124,"Ġage":2125,"Ġfem":2126,"ett":2127,"Ġmeet":2128,"Ġhit":2129,"bor":2130,"Ġident":2131,"ĠAccording":2132,"ination":2133,"ĠGeorge":2134,"Ġspecial":2135,"Ġtechn":2136,"ways":2137,"ĠRober":2138,"Ġwriting":2139,"Ġer":2140,"oice":2141,"Ġstruct":2142,"ĠPhil":2143,"ĠBill":2144,"Ġestablished":2145,"Ġthought":2146,"irl":2147,"Ġbroad":2148,"Ġcop":2149,"enced":2150,"Ġfront":2151,"Ġbody":2152,"Ġmm":2153,"Ġappeared":2154,"ĠSer":2155,"ĠHen":2156,"Ġdoes":2157,"Ġentire":2158,"epend":2159,"Ġcoast":2160,"Ġpoints":2161,"Ġ!":2162,"Ġmiles":2163,"cil":2164,"Ġcoll":2165,"Ġaward":2166,"aval":2167,"ĠAustralian":2168,"Ġimpro":2169,"Ġroute":2170,"Ġmember":2171,"Ġdecl":2172,"ought":2173,"ground":2174,"Ġwomen":2175,"Ġactiv":2176,"Ġrange":2177,"odes":2178,"Ġcaused":2179,"Ġstarted":2180,"Ġdecided":2181,"ript":2182,"urg":2183,"ivil":2184,"ĠEm":2185,"Ġfeatures":2186,"lected":2187,"Ġgeneral":2188,"Ġpain":2189,"Ġeventually":2190,"ĠAct":2191,"day":2192,"here":2193,"ĠPart":2194,"ĠAfric":2195,"less":2196,"omm":2197,"aves":2198,"iers":2199,"hys":2200,"ming":2201,"iron":2202,"conom":2203,"ĠYou":2204,"Ġrace":2205,"ators":2206,"iec":2207,"Ġvot":2208,"ana":2209,"Ġgrow":2210,"Ġmanag":2211,"Ġarch":2212,"Ġfeet":2213,"ster":2214,"idd":2215,"ogn":2216,"Ġtoget":2217,"ĠMed":2218,"Ġtogether":2219,"Ġadded":2220,"rison":2221,"Ġhold":2222,"ĠRoyal":2223,"Ġcut":2224,"ius":2225,"Ġonce":2226,"Ġwhite":2227,"ivid":2228,"ĠHouse":2229,"ĠDavid":2230,"Ġformed":2231,"ĠRich":2232,"ample":2233,"Ġtre":2234,"Ġlocated":2235,"itar":2236,"Ġnov":2237,"Ġ188":2238,"Ġstri":2239,"Ġarg":2240,"Ġconn":2241,"Ġmodern":2242,"Ġinstead":2243,"rought":2244,"bert":2245,"hic":2246,"Ġround":2247,"emy":2248,"men":2249,"Ġesc":2250,"umb":2251,"orts":2252,"aces":2253,"Ġball":2254,"Ġimportant":2255,"Ġmix":2256,"ades":2257,"Ġcrew":2258,"Ġpri":2259,"Ġsaw":2260,"ĠPe":2261,"Ġaction":2262,"urb":2263,"Ġcompleted":2264,"sc":2265,"cing":2266,"Ġ31":2267,"Ġredu":2268,"head":2269,"ĠPer":2270,"Ġplaying":2271,"ray":2272,"ects":2273,"oney":2274,"off":2275,"ĠQu":2276,"ament":2277,"ĠMy":2278,"Ġinsp":2279,"ĠIndian":2280,"Ġmater":2281,"Ġpopulation":2282,"Ġ2004":2283,"Ġinvest":2284,"Ġbase":2285,"ĠIntern":2286,"Ġsurv":2287,"ĠSch":2288,"Ġmot":2289,"ells":2290,"Ġrather":2291,"Ġvoc":2292,"Ġoccur":2293,"ĠHist":2294,"Ġopened":2295,"Ġstage":2296,"ĠBlack":2297,"Ġbehind":2298,"Ġothers":2299,"ush":2300,"Ġfall":2301,"Ġguns":2302,"Ġ186":2303,"cent":2304,"Ġbrother":2305,"ceed":2306,"asing":2307,"Ġren":2308,"Ġcomment":2309,"Ġlik":2310,"igned":2311,"ements":2312,"Ġfif":2313,"Ġsite":2314,"Ġlive":2315,"Ġworks":2316,"Ġloss":2317,"stit":2318,"Ġworked":2319,"Ġbomb":2320,"ficult":2321,"Ġ2015":2322,"aps":2323,"Ġheavy":2324,"Ġmiss":2325,"ĠFrance":2326,"int":2327,"Ġra":2328,"Ġpred":2329,"Ġsubsequ":2330,"Ġlack":2331,"Ġparty":2332,"medi":2333,"Ġproble":2334,"Ġdifficult":2335,"Ġclose":2336,"lection":2337,"wood":2338,"ĠTo":2339,"Ġconstruction":2340,"nder":2341,"Ġknow":2342,"Ġrelationship":2343,"ĠSchool":2344,"Ġweeks":2345,"Ġhost":2346,"gg":2347,"Ġoriginally":2348,"Ġsepar":2349,"Ġassoci":2350,"Ġupon":2351,"Ġpract":2352,"Ġleading":2353,"Ġappoin":2354,"Ġalmost":2355,"Ġvill":2356,"Ġyoung":2357,"Ġpeak":2358,"Ġdamage":2359,"ara":2360,"Ġinj":2361,"arch":2362,"ĠMichael":2363,"istic":2364,"ĠWash":2365,"Ġscored":2366,"Ġborn":2367,"Ġfourth":2368,"Ġinform":2369,"anch":2370,"Ġreve":2371,"osition":2372,"Ġprovided":2373,"Ġmer":2374,"Ġcase":2375,"Ġgoal":2376,"Ġclos":2377,"uk":2378,"Ġengine":2379,"Ġcreat":2380,"ata":2381,"Ġreb":2382,"Ġaccept":2383,"lic":2384,"Ġmor":2385,"ĠNor":2386,"Ġ2000":2387,"Ġscene":2388,"ĠBattle":2389,"Ġmi":2390,"ĠSan":2391,"Ġhuman":2392,"board":2393,"Ġdev":2394,"Ġbrought":2395,"ĠHam":2396,"ellow":2397,"Ġfree":2398,"Ġindivid":2399,"Ġ500":2400,"angu":2401,"ĠPort":2402,"Ġfeatured":2403,"ĠBest":2404,"Ġmother":2405,"Ġleast":2406,"Ġ187":2407,"Ġallowed":2408,"Ġworking":2409,"Ġking":2410,"Ġresul":2411,"Ġlaun":2412,"Ġaverage":2413,"Ġtowards":2414,"ological":2415,"Ġwanted":2416,"ĠMusic":2417,"Ġtradition":2418,"Ġindust":2419,"Ġregion":2420,"Ġbusiness":2421,"After":2422,"ĠHenry":2423,"ened":2424,"ĠCour":2425,"to":2426,"Ġtroops":2427,"Ġplaced":2428,"azine":2429,"ĠStar":2430,"Ġquick":2431,"ule":2432,"Ġeither":2433,"Ġrespect":2434,"Ġoffice":2435,"Ġcritics":2436,"ĠPresident":2437,"Ġavail":2438,"Ġve":2439,"antic":2440,"ĠAle":2441,"Ġreach":2442,"Ġexample":2443,"Ġmult":2444,"ĠVir":2445,"Ġprofess":2446,"Ġmaterial":2447,"ĠRed":2448,"Ġruns":2449,"Ġhon":2450,"Ġrecogn":2451,"Ġeconom":2452,"ĠWashington":2453,"Ġwife":2454,"ula":2455,"ĠQue":2456,"be":2457,"aut":2458,"iff":2459,"arm":2460,"Ġestim":2461,"earch":2462,"Ġarmy":2463,"Ġneg":2464,"Ġfoc":2465,"ĠRou":2466,"espite":2467,"chie":2468,"oid":2469,"ential":2470,"iol":2471,"Ġsex":2472,"rey":2473,"Ġsour":2474,"ĠOther":2475,"Ġgenerally":2476,"ength":2477,"Ġjoined":2478,"Ġ2003":2479,"Ġce":2480,"Ġmass":2481,"Ġrail":2482,"ĠHol":2483,"quadron":2484,"Ġproper":2485,"Ġdou":2486,"ama":2487,"ĠPaul":2488,"Ġcurrent":2489,"ills":2490,"ĠPlay":2491,"ica":2492,"ino":2493,"ĠGro":2494,"Ġevents":2495,"ĠCap":2496,"Ġrepresent":2497,"ĠMil":2498,"Ġbelieved":2499,"ving":2500,"ourn":2501,"ĠCup":2502,"Ġparticip":2503,"ĠRobert":2504,"Ġter":2505,"ollowing":2506,"Ġfig":2507,"enes":2508,"ĠAngel":2509,"ĠCro":2510,"ĠBel":2511,"ĠHall":2512,"Ġvictory":2513,"Ġreplaced":2514,"uff":2515,"Ġdesigned":2516,"Ġmph":2517,"artment":2518,"Ġrul":2519,"Ġ35":2520,"Ġsoon":2521,"Ġnomin":2522,"itch":2523,"iction":2524,"Ġisland":2525,"ee":2526,"ĠAg":2527,"itte":2528,"Ġfund":2529,"ĠGame":2530,"Ġhours":2531,"oor":2532,"Ġemploy":2533,"xic":2534,"Ġz":2535,"ĠGreat":2536,"Ġpresident":2537,"erous":2538,"Ġinvolved":2539,"oms":2540,"Ã¡":2541,"ĠThom":2542,"Ġsurf":2543,"go":2544,"Ġfinished":2545,"aled":2546,"Ġstru":2547,"itor":2548,"ĠEuropean":2549,"ification":2550,"merc":2551,"uel":2552,"ĠChampionship":2553,"inist":2554,"asion":2555,"Ġbreak":2556,"west":2557,"ky":2558,"ĠMary":2559,"Ġsaying":2560,"fall":2561,"ĠFirst":2562,"aper":2563,"Ġhor":2564,"Ġcourt":2565,"Ġthreat":2566,"Ġshot":2567,"Ġopening":2568,"ĠLou":2569,"Ġscore":2570,"Ġregular":2571,"ago":2572,"emor":2573,"key":2574,"Ġdirector":2575,"Ġlength":2576,"Ġdesp":2577,"Ġindic":2578,"Ġconduct":2579,"Ġlargest":2580,"Ġcontrib":2581,"ĠRoman":2582,"Ġpossible":2583,"ecutive":2584,"Ġhighway":2585,"Ġminutes":2586,"Ġunc":2587,"Ġsouthern":2588,"Ġdro":2589,"ville":2590,"BC":2591,"arn":2592,"Ġexc":2593,"Ġhighest":2594,"Ġly":2595,"Ġill":2596,"Ġremov":2597,"Ġearlier":2598,"ishing":2599,"of":2600,"Ġinitially":2601,"ander":2602,"Ġhom":2603,"Ġavailable":2604,"Ġparticularly":2605,"Ġpercent":2606,"antry":2607,"anned":2608,"Ġtraining":2609,"ude":2610,"Ġsequ":2611,"now":2612,"leg":2613,"Ġhard":2614,"Ġ2001":2615,"Ġforced":2616,"co":2617,"Ġexist":2618,"ĠÃ":2619,"Ġmust":2620,"cher":2621,"ply":2622,"ĠAtl":2623,"ĠMart":2624,"ĠJe":2625,"ĠRepublic":2626,"Ġgrad":2627,"inn":2628,"Ġcontr":2629,"ights":2630,"ze":2631,"hib":2632,"ĠÂ°":2633,"Ġpark":2634,"ĠNavy":2635,"ĠSome":2636,"ĠScott":2637,"iding":2638,"ĠLa":2639,"ĠKe":2640,"Ġended":2641,"Ġrespons":2642,"ĠKingdom":2643,"Ġquar":2644,"anish":2645,"ography":2646,"ĠRoute":2647,"asy":2648,"Ġturned":2649,"rian":2650,"ateg":2651,"Ġsocial":2652,"ipp":2653,"oul":2654,"Ġwall":2655,"uture":2656,"Ġstudio":2657,"ĠVal":2658,"iforn":2659,"Ġchange":2660,"Ġlangu":2661,"ĠMal":2662,"ĠSing":2663,"ĠDon":2664,"Ġpraised":2665,"ems":2666,"Ġpassed":2667,"Ġhy":2668,"Ġincreased":2669,"Ġpiec":2670,"Ġobject":2671,"Ġpriv":2672,"Ġbill":2673,"Ġhurricane":2674,"Ġeduc":2675,"Ġregard":2676,"Ġnorthern":2677,"atural":2678,"heast":2679,"ĠMet":2680,"ĠInternational":2681,"Ġkeep":2682,"Ġcentral":2683,"ĠDep":2684,"iation":2685,"Ġphys":2686,"Ġnovel":2687,"ĠWil":2688,"Ġ2002":2689,"Ġrelig":2690,"ĠChurch":2691,"Ġappearance":2692,"Ġunits":2693,"Ġspeed":2694,"ership":2695,"ĠCharles":2696,"Ġsuper":2697,"Ġpast":2698,"ĠCanada":2699,"ĠMac":2700,"Ġchurch":2701,"Ġstop":2702,"ĠMag":2703,"Ġimmedi":2704,"ĠCaliforn":2705,"ĠVirgin":2706,"ended":2707,"anks":2708,"ĠOff":2709,"oring":2710,"ocr":2711,"Ġordered":2712,"Ġmeas":2713,"Ġsym":2714,"ĠThomas":2715,"aughter":2716,"Ġdisp":2717,"ĠWhite":2718,"Ġtreat":2719,"uter":2720,"ios":2721,"Ġtaking":2722,"ĠBut":2723,"ference":2724,"ittee":2725,"Ġlove":2726,"Ġindepend":2727,"sel":2728,"Ġsigned":2729,"ĠBrown":2730,"Ġmove":2731,"Ġquest":2732,"anding":2733,"ĠBay":2734,"ĠSen":2735,"Ġachie":2736,"ston":2737,"ilities":2738,"Ġbetter":2739,"etwork":2740,"ĠRock":2741,"ĠCalifornia":2742,"rem":2743,"val":2744,"den":2745,"aker":2746,"ĠRes":2747,"pped":2748,"Ġpers":2749,"ĠMcC":2750,"ĠUnion":2751,"amb":2752,"arily":2753,"ecess":2754,"apt":2755,"Ġwinds":2756,"Ġcommerc":2757,"Ġenough":2758,"Ġpositive":2759,"ĠBer":2760,"agon":2761,"Ġinn":2762,"ĠIsland":2763,"Ġwat":2764,"ique":2765,"Ġaccording":2766,"Ġspent":2767,"ears":2768,"ĠSmith":2769,"Ġhous":2770,"Ġgoing":2771,"rated":2772,"rup":2773,"ĠCourt":2774,"Ġabove":2775,"ĠPal":2776,"Ġoutside":2777,"elled":2778,"Ġslow":2779,"Ġap":2780,"Ġfilms":2781,"ump":2782,"nel":2783,"Ġpot":2784,"ĠGovern":2785,"ks":2786,"tr":2787,"Ġfeel":2788,"ume":2789,"Ġtold":2790,"Ġfootball":2791,"Ġpreviously":2792,"ids":2793,"Ġrecording":2794,"Ġstates":2795,"Ġclear":2796,"quare":2797,"ĠTwo":2798,"Ġmean":2799,"ĠAward":2800,"uation":2801,"Ġnine":2802,"ĠGod":2803,"Ġfailed":2804,"Ġ1990":2805,"Ġsubject":2806,"Ġassist":2807,"ĠIr":2808,"Ġcome":2809,"ĠAlex":2810,"ĠRichard":2811,"usion":2812,"ĠAssoci":2813,"Ġrequired":2814,"ĠCompany":2815,"Ġpur":2816,"Ġelements":2817,"ĠSl":2818,"ĠCong":2819,"Ġprob":2820,"osing":2821,"reng":2822,"com":2823,"alion":2824,"Ġ60":2825,"Ġey":2826,"Ġreviews":2827,"edy":2828,"onst":2829,"Ġinterview":2830,"Ġcru":2831,"ĠVict":2832,"Ġlower":2833,"Ġparts":2834,"for":2835,"Ġitself":2836,"atin":2837,"Ġthink":2838,"Ġ45":2839,"Ġpay":2840,"Ġdirected":2841,"ida":2842,"oph":2843,"ĠIndia":2844,"ĠMo":2845,"Ġnar":2846,"Ġabs":2847,"ĠGermany":2848,"Ġdespite":2849,"itz":2850,"Ġsil":2851,"Ġflow":2852,"Ġcred":2853,"Ġesp":2854,"ĠSam":2855,"Ġcontract":2856,"hem":2857,"ands":2858,"Ġdebut":2859,"Ġphot":2860,"Ġrain":2861,"ibility":2862,"Ġ185":2863,"ĠÂ£":2864,"Ġ?":2865,"ĠTimes":2866,"erved":2867,"ĠChristian":2868,"ready":2869,"Ġaccess":2870,"isl":2871,"Ġbeginning":2872,"Ġgroups":2873,"het":2874,"oke":2875,"Ġviol":2876,"onna":2877,"ĠCollege":2878,"Ġsection":2879,"As":2880,"amer":2881,"Ġbeg":2882,"Ġwhose":2883,"asons":2884,"Ġclaimed":2885,"ĠStud":2886,"ows":2887,"hester":2888,"ĠCr":2889,"Ġasked":2890,"oviet":2891,"Ġinternational":2892,"Ġlines":2893,"Ġtransfer":2894,"hile":2895,"Ġrap":2896,"nes":2897,"ĠUK":2898,"Ġcou":2899,"Ġstreng":2900,"Ġgive":2901,"ĠJos":2902,"ĠAc":2903,"Ġscreen":2904,"onse":2905,"ĠGold":2906,"airs":2907,"rief":2908,"Ġadditional":2909,"aint":2910,"Ġfuture":2911,"ability":2912,"Ġleague":2913,"ĠWestern":2914,"Ġwhom":2915,"ĠSoviet":2916,"ĠMer":2917,"Ġkey":2918,"ĠHill":2919,"ĠPeter":2920,"Ġpoor":2921,"eal":2922,"berg":2923,"ma":2924,"Ġgold":2925,"ĠArt":2926,"ĠMark":2927,"ĠAwards":2928,"acted":2929,"ĠMexic":2930,"Ġintroduced":2931,"Ġtravel":2932,"Ġbi":2933,"Ġfort":2934,"Ġop":2935,"lying":2936,"Ġprem":2937,"Ġevidence":2938,"Ġsea":2939,"ĠDespite":2940,"Ġidea":2941,"Ġquickly":2942,"Ġdon":2943,"igan":2944,"ĠCast":2945,"ki":2946,"ania":2947,"Ġalready":2948,"Ġcenter":2949,"Ġbridge":2950,"ĠTom":2951,"Ġfrequ":2952,"ĠNY":2953,"ĠForce":2954,"Ġelection":2955,"Ġproduct":2956,"Ġoccup":2957,"ĠDan":2958,"Ġexcept":2959,"ĠPat":2960,"Ġdeal":2961,"usp":2962,"atory":2963,"Ġ1970":2964,"ecially":2965,"ĠThat":2966,"Ġpil":2967,"ĠDem":2968,"Ġusually":2969,"Ġarrived":2970,"mar":2971,"Ġmusical":2972,"Ġwestern":2973,"anded":2974,"Ġpen":2975,"irth":2976,"Ġblock":2977,"Ġradio":2978,"Ġ1980":2979,"eum":2980,"liam":2981,"Ġcivil":2982,"ĠDo":2983,"ĠCoun":2984,"aring":2985,"ĠSoc":2986,"Ġ32":2987,"ergy":2988,"ully":2989,"Ġcal":2990,"Ġfemale":2991,"Ġsometimes":2992,"ĠBritain":2993,"Ġstudy":2994,"back":2995,"Ġresponse":2996,"ĠGrand":2997,"Ġcycl":2998,"Ġfood":2999,"Ġmoney":3000,"Ġdecision":3001,"Ġmagazine":3002,"Ġespecially":3003,"ĠFrank":3004,"ship":3005,"Ġissue":3006,"Ġenv":3007,"liament":3008,"ĠFilm":3009,"Ġsurface":3010,"ites":3011,"Ġflood":3012,"Ġmight":3013,"Ġlab":3014,"Ġliter":3015,"Ġcarried":3016,"Ġshows":3017,"Ġguitar":3018,"Ġcommunity":3019,"ĠHot":3020,"ĠDay":3021,"Ġestimated":3022,"Ġconstruct":3023,"ĠPac":3024,"unt":3025,"Ġremain":3026,"eck":3027,"Ġremaining":3028,"Ġeastern":3029,"Ġminor":3030,"Ġdefeated":3031,"Ġdeterm":3032,"ĠChic":3033,"Ġapprox":3034,"Ġlarger":3035,"inent":3036,"Ġbecoming":3037,"ession":3038,"Ġ1999":3039,"ĠBen":3040,"aries":3041,"ĠVictor":3042,"Ġcomplete":3043,"Ġpolice":3044,"Ġwood":3045,"Ġsuggested":3046,"porary":3047,"Ġmedia":3048,"Ġpressure":3049,"Ġentered":3050,"Ġshoot":3051,"Ġteams":3052,"Ġcommercial":3053,"Ġlatter":3054,"Ġlyric":3055,"Ġmarket":3056,"Ġconsider":3057,"Ġstudents":3058,"erve":3059,"Ġdoc":3060,"Ġsurround":3061,"ift":3062,"Ġinvestig":3063,"Ġbrief":3064,"asc":3065,"Ġconcern":3066,"Ġpersonal":3067,"bour":3068,"ĠRob":3069,"Ġ36":3070,"Ġlo":3071,"Ġprison":3072,"Ġcertain":3073,"ulf":3074,"ĠLos":3075,"Ġdiscuss":3076,"Ġ80":3077,"ĠMount":3078,"inct":3079,"Ġacqu":3080,"Ġeffects":3081,"ena":3082,"Ġcomplet":3083,"Ġappointed":3084,"ĠVirginia":3085,"Ġbur":3086,"Ġhop":3087,"Ġepisodes":3088,"Ġsummer":3089,"ederal":3090,"Ġprior":3091,"alled":3092,"gen":3093,"acing":3094,"incip":3095,"change":3096,"ĠFranc":3097,"Ġder":3098,"Ġsize":3099,"enth":3100,"Ġstaff":3101,"Ġemer":3102,"Ġchanges":3103,"ises":3104,"Ġcommission":3105,"Ġsat":3106,"anced":3107,"Ġwinning":3108,"lymp":3109,"Ġlimited":3110,"Ġtar":3111,"ĠMill":3112,"Ġscenes":3113,"ĠFrom":3114,"imate":3115,"Ġleaving":3116,"Ġdestroyed":3117,"Ġfleet":3118,"Ġriver":3119,"ulated":3120,"ĠSecond":3121,"sy":3122,"ĠTex":3123,"ĠOlymp":3124,"Ġdraw":3125,"pris":3126,"ĠInf":3127,"Ġself":3128,"ĠClub":3129,"Ġrights":3130,"ĠBur":3131,"Ġden":3132,"Ġwriter":3133,"Ġprovide":3134,"ournal":3135,"igade":3136,"idents":3137,"Ġpolic":3138,"Ġfail":3139,"ĠFlor":3140,"ires":3141,"Ġdate":3142,"ĠFle":3143,"vey":3144,"Ġterrit":3145,"Ġproposed":3146,"ension":3147,"Ġinfluence":3148,"Ġgirl":3149,"Ġtrib":3150,"ĠSpanish":3151,"ĠJackson":3152,"Ġoverall":3153,"ĠParty":3154,"ĠEv":3155,"Ġarrang":3156,"ĠLouis":3157,"ests":3158,"Ġstructure":3159,"Ġtransport":3160,"su":3161,"NA":3162,"iser":3163,"ties":3164,"yr":3165,"Ġ75":3166,"Ġtax":3167,"Ġequip":3168,"tt":3169,"Ġ1960":3170,"Ġ184":3171,"Ġdivision":3172,"Ġkil":3173,"Ġscript":3174,"inese":3175,"iral":3176,"Ġagreed":3177,"Ġ300":3178,"Ġroom":3179,"AF":3180,"ĠAssociation":3181,"Ġintended":3182,"Ġrunning":3183,"Ġanti":3184,"Ġtype":3185,"II":3186,"Ġjud":3187,"Ġdaughter":3188,"Ġbow":3189,"Ġbroadcast":3190,"Ġnearly":3191,"Ġpurch":3192,"Ġsupported":3193,"ending":3194,"Ġbig":3195,"Ġdeep":3196,"Ġresearch":3197,"Ġwide":3198,"Ġestablish":3199,"Ġhelped":3200,"imum":3201,"atives":3202,"Ġmarried":3203,"ĠChicago":3204,"Ġmovement":3205,"ĠIm":3206,"Ġawarded":3207,"aded":3208,"ĠCouncil":3209,"lo":3210,"Ġlay":3211,"ĠLater":3212,"Ġmultip":3213,"St":3214,"ores":3215,"Ġ1998":3216,"rd":3217,"Ġcreate":3218,"Ġfavor":3219,"Ġdisplay":3220,"Ġintens":3221,"atively":3222,"ĠJust":3223,"ĠGreen":3224,"ĠChinese":3225,"ex":3226,"iles":3227,"Ġdi":3228,"Ġbird":3229,"Ġdark":3230,"Ġsusp":3231,"ha":3232,"Ġdiss":3233,"Ġstars":3234,"teen":3235,"ĠAdm":3236,"ga":3237,"que":3238,"Ġlonger":3239,"Ġlanguage":3240,"Ġhigher":3241,"Ġplanned":3242,"Ġcompared":3243,"Ġcaptured":3244,"dle":3245,"Ġincreasing":3246,"sen":3247,"Ġfans":3248,"Ġstay":3249,"ĠDu":3250,"Ġconclud":3251,"Ġcourse":3252,"Ġchanged":3253,"selves":3254,"Ġexperience":3255,"Ġapproximately":3256,"Ġrelated":3257,"ĠIf":3258,"Ġdone":3259,"Ġfeature":3260,"Ġfifth":3261,"Ġliving":3262,"Ġcat":3263,"Ġthemselves":3264,"ĠSong":3265,"omer":3266,"tained":3267,"ounds":3268,"ronic":3269,"Ġproducer":3270,"enty":3271,"bers":3272,"Ġtemper":3273,"Ġtracks":3274,"Ġmostly":3275,"ĠEdward":3276,"Ġspace":3277,"ĠKore":3278,"ĠHistory":3279,"ĠEarly":3280,"Ġwithd":3281,"isions":3282,"ĠEmp":3283,"abit":3284,"burg":3285,"ĠPacific":3286,"Ġthus":3287,"ĠEnter":3288,"ĠOper":3289,"Ġ70":3290,"ĠItal":3291,"ĠUp":3292,"Ġwoman":3293,"Ġ33":3294,"Ġoperations":3295,"ĠOver":3296,"Ġdead":3297,"Ġremains":3298,"ĠBillboard":3299,"ĠRo":3300,"Th":3301,"Ġparen":3302,"Ġquarter":3303,"Ġ-":3304,"Ġbring":3305,"olic":3306,"Ġour":3307,"Ġnatural":3308,"ĠServ":3309,"thing":3310,"umn":3311,"Ġwhether":3312,"Ġimm":3313,"Ġweap":3314,"Ġprobably":3315,"Ġsoldiers":3316,"Ġconcept":3317,"Ġdram":3318,"andon":3319,"che":3320,"Ġcopies":3321,"Ġult":3322,"imin":3323,"Ġbuildings":3324,"Ġleader":3325,"Ġvoice":3326,"Ġextended":3327,"Ġsyn":3328,"Ġface":3329,"Ġlyrics":3330,"Ġforward":3331,"can":3332,"Ġdepart":3333,"Ġboy":3334,"oint":3335,"Ġcomplex":3336,"Ġboard":3337,"Ġreact":3338,"Ġissued":3339,"ĠAtlantic":3340,"Ġbattles":3341,"Ġchall":3342,"iant":3343,"riage":3344,"Ġreally":3345,"Ġcountries":3346,"Ġheav":3347,"iring":3348,"Ġ1997":3349,"Ġsuffered":3350,"vin":3351,"ospital":3352,"Ġcm":3353,"Ġgoals":3354,"Al":3355,"Ġincludes":3356,"ĠScot":3357,"Ġimmediately":3358,"raz":3359,"ĠJohnson":3360,"Ġattend":3361,"ams":3362,"ien":3363,"Ġdeg":3364,"ĠLake":3365,"Ġbreed":3366,"Ġmanager":3367,"Ġmixed":3368,"Ġprivate":3369,"Ġcapital":3370,"ĠSal":3371,"ny":3372,"ĠKh":3373,"Ġofficers":3374,"ĠCongress":3375,"Ġlikely":3376,"ĠMont":3377,"Ġemb":3378,"hood":3379,"ĠCont":3380,"ĠLove":3381,"Ġdistrib":3382,"ĠSun":3383,"Ġ37":3384,"lebr":3385,"eph":3386,"ĠFlorida":3387,"Ġcann":3388,"Ġremoved":3389,"uth":3390,"Ġinitial":3391,"During":3392,"Ġincrease":3393,"Ġplant":3394,"ĠJew":3395,"Ġmach":3396,"ĠLit":3397,"ĠBack":3398,"venue":3399,"Ġhealth":3400,"Ġsubsequently":3401,"Ġleave":3402,"Ġplans":3403,"Ġalways":3404,"uz":3405,"ibr":3406,"Ġfocus":3407,"Ġservices":3408,"Ġnetwork":3409,"Ġstatus":3410,"hold":3411,"Ġvia":3412,"Ġcoin":3413,"Ġmount":3414,"urt":3415,"ections":3416,"Ġcompan":3417,"Ġlocation":3418,"Ġvisit":3419,"ĠMost":3420,"ÃŃ":3421,"ĠFinal":3422,"bury":3423,"order":3424,"Ġproblems":3425,"rial":3426,"Ġoffered":3427,"ĠQueen":3428,"ĠTown":3429,"ĠSea":3430,"ĠInter":3431,"Ġinstr":3432,"Ġflag":3433,"Ġterms":3434,"ĠFort":3435,"Ġmodel":3436,"ĠTexas":3437,"Ġnorm":3438,"ctor":3439,"ĠChina":3440,"Ġapproach":3441,"ĠBig":3442,"aily":3443,"ĠApp":3444,"Ġcolon":3445,"Ġvillage":3446,"Ġsomething":3447,"ĠDist":3448,"Ġadminist":3449,"Ġtons":3450,"ging":3451,"Ġfell":3452,"Ġcarry":3453,"ounted":3454,"Ġmur":3455,"ĠFollowing":3456,"Ġmajority":3457,"ironment":3458,"ria":3459,"Ġprofessional":3460,"Ġtow":3461,"ĠOld":3462,"ĠEarth":3463,"At":3464,"ously":3465,"Ġ183":3466,"ari":3467,"Ġmeth":3468,"Ġtor":3469,"adium":3470,"Ġgot":3471,"Ġcause":3472,"ograph":3473,"ĠAfrica":3474,"Ġconsist":3475,"ili":3476,"uries":3477,"ĠLord":3478,"Ġdamaged":3479,"Ġinters":3480,"well":3481,"Ġmeeting":3482,"stant":3483,"Ġappears":3484,"ĠLaw":3485,"ĠRail":3486,"Ġjob":3487,"Ġcounter":3488,"Ġconfir":3489,"Ġminute":3490,"etic":3491,"aches":3492,"Ġadop":3493,"ĠCamp":3494,"ĠCanadian":3495,"Ġranked":3496,"Ġran":3497,"rol":3498,"ĠMr":3499,"ĠJim":3500,"Ġcomposed":3501,"Ġindividual":3502,"Ġrevealed":3503,"ys":3504,"ĠSquadron":3505,"Ġattacks":3506,"ĠCenter":3507,"Ġflight":3508,"ĠPri":3509,"itect":3510,"reater":3511,"Ġsch":3512,"Ġplot":3513,"Ġdiscovered":3514,"Ġraised":3515,"ĠTour":3516,"ware":3517,"ĠKn":3518,"ĠTor":3519,"Ġrespectively":3520,"Ġfinanc":3521,"umed":3522,"Ġmakes":3523,"ify":3524,"ĠBoy":3525,"ĠRussian":3526,"ij":3527,"oes":3528,"Ġnumerous":3529,"Ġassociated":3530,"ĠTrans":3531,"ĠIts":3532,"Ġtakes":3533,"ĠAngeles":3534,"Ġaltern":3535,"reak":3536,"ĠHow":3537,"Ġneeded":3538,"Ġinspired":3539,"aging":3540,"Ġdomin":3541,"Ġlived":3542,"mon":3543,"Ġ1995":3544,"ĠIII":3545,"ĠHighway":3546,"olk":3547,"Ġlaunched":3548,"Ġyet":3549,"Ġanc":3550,"ĠWood":3551,"Ġnature":3552,"Ġ90":3553,"lor":3554,"ĠCarol":3555,"ription":3556,"Ġoccurred":3557,"ĠPet":3558,"Ġcontains":3559,"ĠTur":3560,"ĠCentral":3561,"Ġvehic":3562,"ĠKent":3563,"Ġcoach":3564,"Ġshown":3565,"Ġcand":3566,"Ġbene":3567,"ails":3568,"Ġattempted":3569,"estival":3570,"Ġattacked":3571,"Ġpow":3572,"Ġmoving":3573,"Ġconditions":3574,"uments":3575,"fact":3576,"Ġupper":3577,"uals":3578,"ault":3579,"Ġamb":3580,"Ġsales":3581,"Ġdig":3582,"Ġaccomp":3583,"ective":3584,"Ġcollect":3585,"joy":3586,"ĠDV":3587,"ĠYear":3588,"arian":3589,"down":3590,"Ġissues":3591,"itt":3592,"de":3593,"aught":3594,"Ġbirth":3595,"gely":3596,"Ġwhole":3597,"Ġ2016":3598,"Ġinformation":3599,"Ġ1950":3600,"Ġexam":3601,"Ġyards":3602,"Ã¶":3603,"Ġslight":3604,"Ġ34":3605,"ĠTV":3606,"ĠMartin":3607,"Ġ1996":3608,"Ġreferred":3609,"urity":3610,"Ġbox":3611,"Ġcritical":3612,"Ġmom":3613,"uing":3614,"Ġ38":3615,"Ã¼":3616,"ĠGreek":3617,"ĠEmpire":3618,"Ġnumbers":3619,"Ġfinally":3620,"Ġincor":3621,"Ġsmaller":3622,"oe":3623,"ĠBow":3624,"Ġelected":3625,"Ġselected":3626,"Ġresulted":3627,"cean":3628,"Ġdefeat":3629,"reme":3630,"ĠMur":3631,"ĠGroup":3632,"Ġgrant":3633,"Ġscient":3634,"Ġportray":3635,"vert":3636,"ĠAnt":3637,"Ġactive":3638,"rie":3639,"win":3640,"Ġqual":3641,"Ġsinger":3642,"Ġsen":3643,"Ġbad":3644,"Ġprincip":3645,"ĠRh":3646,"Ġstandard":3647,"iest":3648,"Ġsecret":3649,"Ġcelebr":3650,"Ġmission":3651,"Ġindustry":3652,"uated":3653,"Ġsal":3654,"Ġlargely":3655,"Ġgrand":3656,"Ġoperation":3657,"ĠOl":3658,"ortun":3659,"ĠRev":3660,"enant":3661,"Ġpit":3662,"imb":3663,"itation":3664,"Ġassigned":3665,"Ġlink":3666,"Ġcer":3667,"ĠMiss":3668,"Ġens":3669,"Ġearned":3670,"Ġsaf":3671,"ĠSir":3672,"Ġanaly":3673,"Ġ1994":3674,"Ġlegisl":3675,"Ġcommented":3676,"Ġthr":3677,"Ġexpected":3678,"Ġang":3679,"ĠItalian":3680,"Ġmale":3681,"ĠMel":3682,"Ġprec":3683,"ĠCorps":3684,"ste":3685,"ken":3686,"itude":3687,"Ġlisted":3688,"Ġaudience":3689,"Ġroy":3690,"lled":3691,"Ġcovered":3692,"ĠBet":3693,"Ġartic":3694,"izing":3695,"Ġunable":3696,"Ġpurp":3697,"Ġsched":3698,"Ġtraditional":3699,"ĠDVD":3700,"Ġeducation":3701,"irection":3702,"Ġtrade":3703,"Ġartist":3704,"Ġfriends":3705,"Ġi":3706,"Ġnewsp":3707,"Ġheart":3708,"Ġdouble":3709,"Ġclosed":3710,"Ġrefused":3711,"ĠBoth":3712,"Ġsem":3713,"Ġunderst":3714,"Ġattention":3715,"Ġrecover":3716,"Ġprimary":3717,"Ġmethod":3718,"ounts":3719,"Ġrequest":3720,"Ġsister":3721,"aine":3722,"Ġprevent":3723,"ĠStr":3724,"Ġkind":3725,"Ġtalk":3726,"ogue":3727,"ĠRad":3728,"ĠPenn":3729,"onic":3730,"Ġreason":3731,"ĠViet":3732,"ighter":3733,"Ġletter":3734,"Ġofficer":3735,"Ġbelow":3736,"Ġcontem":3737,"Ġenjoy":3738,"ĠNot":3739,"Ġ1940":3740,"oly":3741,"Ġability":3742,"Ġdepression":3743,"Ġmeant":3744,"ĠSuper":3745,"Ġperformances":3746,"kin":3747,"Ġdeclared":3748,"Ġplat":3749,"hips":3750,"ples":3751,"Ġwalk":3752,"erry":3753,"ĠDes":3754,"Ġgiving":3755,"oud":3756,"undred":3757,"Ġword":3758,"Ġfighting":3759,"ĠWales":3760,"isher":3761,"Ġblood":3762,"Ġcommander":3763,"Ġreligious":3764,"Ġcompl":3765,"Ġbooks":3766,"use":3767,"tered":3768,"Ġtheat":3769,"Ġmiddle":3770,"ider":3771,"ĠCam":3772,"Ġsett":3773,"Ġrate":3774,"Ġ180":3775,"ĠMany":3776,"Ġmax":3777,"Ġhot":3778,"Ġrecords":3779,"ĠMichigan":3780,"iled":3781,"ĠDel":3782,"Ġ49":3783,"Ġmatches":3784,"Ġnames":3785,"ĠCath":3786,"Ġconstit":3787,"Ġproduce":3788,"Ġquestion":3789,"aped":3790,"ĠDemocr":3791,"ĠNort":3792,"Ġcompetition":3793,"ĠOut":3794,"antasy":3795,"Ġserious":3796,"Ġcentre":3797,"Ġunit":3798,"Ġvocals":3799,"utch":3800,"ĠGar":3801,"Ġdisapp":3802,"everal":3803,"bridge":3804,"Ġtouch":3805,"Ġmention":3806,"odies":3807,"ĠMinister":3808,"ĠZeal":3809,"ĠTest":3810,"iences":3811,"road":3812,"Ġaccount":3813,"ounded":3814,"Ġabandon":3815,"ĠAcad":3816,"Ġrapid":3817,"icted":3818,"Ġenergy":3819,"Ġnecess":3820,"shire":3821,"ĠMass":3822,"ĠDis":3823,"ady":3824,"Ġ1992":3825,"ector":3826,"Ġkilomet":3827,"icient":3828,"ims":3829,"quar":3830,"Ġdra":3831,"ervation":3832,"Ġconstructed":3833,"Ġdut":3834,"Ġtraff":3835,"ĠTeam":3836,"irt":3837,"ening":3838,"ona":3839,"Ġtheme":3840,"rug":3841,"Ġris":3842,"echan":3843,"ĠCare":3844,"Ġroyal":3845,"Ġnearby":3846,"Ġhighly":3847,"Ġpick":3848,"ishop":3849,"ĠZealand":3850,"Ġseparate":3851,"Ġtrain":3852,"oses":3853,"Ġhar":3854,"Ġcontinue":3855,"Ġ41":3856,"edic":3857,"ĠMidd":3858,"Ġchief":3859,"Ġeffort":3860,"Ġpresented":3861,"ares":3862,"Ġcombat":3863,"rier":3864,"Ġprep":3865,"Ġdrum":3866,"Ġpositions":3867,"ĠCle":3868,"Ġreduced":3869,"Ġannual":3870,"Ġcontrovers":3871,"Ġdirectly":3872,"ĠMexico":3873,"ansion":3874,"ieut":3875,"Ġlevels":3876,"Ġtur":3877,"sis":3878,"Ġmeans":3879,"ĠAfrican":3880,"ibly":3881,"Ġnotes":3882,"Ġattended":3883,"Ġ400":3884,"Ġ1930":3885,"Ġcas":3886,"Ġneigh":3887,"Ġtried":3888,"Ġsevent":3889,"Ġpractice":3890,"ĠLu":3891,"Ġforest":3892,"Ġcompos":3893,"Ġcle":3894,"ĠOx":3895,"emorial":3896,"ether":3897,"Ġedition":3898,"ĠTime":3899,"anes":3900,"Ã³":3901,"ĠLong":3902,"ĠFore":3903,"Ġfast":3904,"ĠStep":3905,"Ġtwenty":3906,"ĠUnder":3907,"Ġaccepted":3908,"Ġnuc":3909,"ĠEr":3910,"vement":3911,"ette":3912,"Ġstating":3913,"Ġmetal":3914,"oper":3915,"Ġmovie":3916,"Ġarchitect":3917,"Ġwatch":3918,"oo":3919,"Ġtext":3920,"ĠFox":3921,"ĠChart":3922,"cel":3923,"Ġrepe":3924,"Ġcandid":3925,"rical":3926,"Ġconcert":3927,"Ġadvance":3928,"Ġ1991":3929,"Ġ1993":3930,"track":3931,"stitute":3932,"Ġrein":3933,"Ġpair":3934,"acher":3935,"ĠHaw":3936,"osen":3937,"ĠArch":3938,"Ġdirection":3939,"ado":3940,"ĠBu":3941,"ersey":3942,"Ġ179":3943,"Ġseem":3944,"Ġschools":3945,"Ġlegal":3946,"Ġdism":3947,"Ġreject":3948,"ĠCons":3949,"Ġrare":3950,"ping":3951,"lict":3952,"ĠAnother":3953,"ani":3954,"Ġ55":3955,"light":3956,"ĠPre":3957,"aver":3958,"ĠSum":3959,"Ġmarriage":3960,"Ġthick":3961,"ĠWal":3962,"wide":3963,"Ġrecomm":3964,"Ġoil":3965,"Ġhorse":3966,"illery":3967,"eway":3968,"Ġmanaged":3969,"Ġefforts":3970,"Ġasp":3971,"Ġcollege":3972,"ĠDepartment":3973,"ĠMajor":3974,"Ġ+":3975,"ĠScotland":3976,"Ġpurs":3977,"icip":3978,"Ġending":3979,"Ġresulting":3980,"Ġavoid":3981,"Ġwing":3982,"ieutenant":3983,"ĠMore":3984,"ĠWall":3985,"utions":3986,"Ġshowed":3987,"Ġdropped":3988,"Ġresponsible":3989,"Ġinside":3990,"ĠCreek":3991,"Ġnation":3992,"inem":3993,"Ġcases":3994,"Ġkept":3995,"ĠJones":3996,"Ġenvironment":3997,"aph":3998,"ĠInfantry":3999,"irit":4000,"Ġcust":4001,"Ġ182":4002,"Ġculture":4003,"Ġmeaning":4004,"Ġcyclone":4005,"band":4006,"house":4007,"ĠMadonna":4008,"Ġbegins":4009,"Ġincorpor":4010,"illed":4011,"Ġvariety":4012,"ĠArab":4013,"Ġmorning":4014,"Ġrat":4015,"uit":4016,"ceeded":4017,"MS":4018,"awn":4019,"Ġhouses":4020,"Ġcerem":4021,"Ġforms":4022,"isation":4023,"Ġdom":4024,"Ġchampionship":4025,"Ġ39":4026,"Ġwords":4027,"Ġarrest":4028,"ĠChris":4029,"peror":4030,"Ġyard":4031,"like":4032,"ĠCross":4033,"Ġschol":4034,"Ġge":4035,"Ġinches":4036,"Ġmarked":4037,"ĠBost":4038,"Ġcontinues":4039,"ĠSo":4040,"ĠManc":4041,"Ġscience":4042,"ĠTre":4043,"ĠBob":4044,"ĠKenn":4045,"ĠMatt":4046,"Ġ48":4047,"Ġperm":4048,"Ġsymb":4049,"Ġ181":4050,"ĠHung":4051,"ĠRecords":4052,"ĠCrit":4053,"cend":4054,"Ġuses":4055,"Ġbank":4056,"Ġeconomic":4057,"ecting":4058,"ĠDar":4059,"gypt":4060,"Ġspl":4061,"Ġsource":4062,"ĠBC":4063,"ĠSecret":4064,"ka":4065,"Ġquality":4066,"iated":4067,"Ġ42":4068,"Ġdefend":4069,"writ":4070,"ĠTheir":4071,"ĠService":4072,"thel":4073,"olf":4074,"ĠWilliams":4075,"Ġhundred":4076,"Ġlear":4077,"ĠStone":4078,"ĠParliament":4079,"Ġsettle":4080,"ĠLeg":4081,"ulations":4082,"Ġconducted":4083,"Ġstarting":4084,"Ġimpact":4085,"ylv":4086,"cle":4087,"Ġyour":4088,"Ġspecific":4089,"Ġstrugg":4090,"Ġallowing":4091,"ĠGames":4092,"thur":4093,"ĠPost":4094,"ĠAnn":4095,"Ġpresence":4096,"ĠSociety":4097,"Ġ1942":4098,"ĠSar":4099,"Ġamount":4100,"bed":4101,"Ġple":4102,"Ġbeat":4103,"An":4104,"Ġviewers":4105,"Ġdu":4106,"Ġsides":4107,"ait":4108,"Ġmetres":4109,"een":4110,"ĠFour":4111,"Ġdance":4112,"Ġrule":4113,"Ġchap":4114,"Ġexhib":4115,"ĠEgypt":4116,"Ġunivers":4117,"Ġsuppl":4118,"Ġdistinct":4119,"ĠHel":4120,"Ġtransferred":4121,"Ġmultiple":4122,"Ġraid":4123,"rown":4124,"Ġpotential":4125,"ĠNews":4126,"ĠDou":4127,"ĠFoot":4128,"Ġforeign":4129,"Ġcontrast":4130,"Ġpeaked":4131,"irm":4132,"ols":4133,"Ġenemy":4134,"ingu":4135,"Ġbecomes":4136,"Ġcaptain":4137,"ĠCommittee":4138,"Ġtraffic":4139,"itiz":4140,"arent":4141,"Ġowned":4142,"Ġthings":4143,"Ġfounded":4144,"Ġgreater":4145,"ĠBook":4146,"Ġmess":4147,"ĠLatin":4148,"gl":4149,"Ġconcluded":4150,"Ġportion":4151,"Ġvocal":4152,"Ġscoring":4153,"Ġcastle":4154,"ĠSouthern":4155,"Ġrespond":4156,"Ġproperty":4157,"Ġstories":4158,"sych":4159,"Ġattempts":4160,"Ġ65":4161,"Ġencoun":4162,"Ġopt":4163,"ĠSince":4164,"Ġrelatively":4165,"ĠStan":4166,"ĠGo":4167,"Ġprimarily":4168,"iance":4169,"Ġdemonst":4170,"inet":4171,"ĠPrince":4172,"ecause":4173,"Ġfederal":4174,"Ġfinancial":4175,"ĠSur":4176,"Ġactually":4177,"Ġanimals":4178,"ĠArm":4179,"ressive":4180,"Ġobserved":4181,"ĠBoston":4182,"ĠMic":4183,"Ġcollection":4184,"fect":4185,"ellig":4186,"Ġopportun":4187,"Ġtitled":4188,"ĠOh":4189,"Ġtourn":4190,"ĠTri":4191,"Ġfeaturing":4192,"Ġlif":4193,"ih":4194,"ita":4195,"Ġwriters":4196,"ĠWin":4197,"istics":4198,"Ġ47":4199,"Ġwrite":4200,"aud":4201,"Ġjournal":4202,"ĠChief":4203,"ĠAdmiral":4204,"Ġ1944":4205,"Ġstrength":4206,"ours":4207,"Ġweaken":4208,"ĠGeorg":4209,"ĠVietn":4210,"Ġinch":4211,"Ġwor":4212,"ĠChe":4213,"ĠVer":4214,"Ġsituation":4215,"Ġdistance":4216,"Ġspot":4217,"Ġpaid":4218,"Ġpremi":4219,"Ġmechan":4220,"Ġparents":4221,"right":4222,"ĠBridge":4223,"ĠSwed":4224,"Ġindependent":4225,"Ġfigure":4226,"ĠOxford":4227,"ĠBattalion":4228,"umber":4229,"Ġshare":4230,"Ġacting":4231,"Ġactor":4232,"Ġcompanies":4233,"Ġdivided":4234,"eds":4235,"ĠCommission":4236,"Ġonto":4237,"alle":4238,"ĠSat":4239,"Äĩ":4240,"Ġcollabor":4241,"ĠManchester":4242,"Ġmind":4243,"Ġslightly":4244,"Ġtarget":4245,"Ġpiece":4246,"ĠClass":4247,"ada":4248,"Ġfunction":4249,"Ġselling":4250,"Ġ52":4251,"ĠOtt":4252,"perial":4253,"Ġpowerful":4254,"Ġreform":4255,"ricket":4256,"ĠParis":4257,"Ġ46":4258,"Ġinnings":4259,"Ġrating":4260,"Ġconcent":4261,"Ġ64":4262,"Ġtorped":4263,"Ġplays":4264,"thlet":4265,"Ġlot":4266,"Ġbroke":4267,"Ġtoday":4268,"Ġrough":4269,"Ġera":4270,"chest":4271,"Ġactions":4272,"ĠFin":4273,"Ġultimately":4274,"lam":4275,"Ġwaters":4276,"oration":4277,"Ġmel":4278,"Ġtrial":4279,"Ġcho":4280,"ĠStephen":4281,"Ġsquare":4282,"Ġmaximum":4283,"ining":4284,"istry":4285,"Ġdise":4286,"ĠSpec":4287,"ros":4288,"ĠJeff":4289,"ĠDen":4290,"udd":4291,"ĠSol":4292,"uge":4293,"Ġtend":4294,"Ġpilot":4295,"Ġbound":4296,"ĠLife":4297,"ĠCaptain":4298,"annel":4299,"ĠBBC":4300,"astic":4301,"Ġ43":4302,"ĠColumb":4303,"Ġcompletely":4304,"ĠBrad":4305,"Ġsought":4306,"ĠJoseph":4307,"acts":4308,"Ġinterp":4309,"Ġpolicy":4310,"ĠHor":4311,"ĠAcademy":4312,"sw":4313,"Ġ1920":4314,"Ġscale":4315,"Ġ1945":4316,"ĠHarrison":4317,"anna":4318,"Ġblue":4319,"Ġsociety":4320,"force":4321,"Ġmainly":4322,"ĠDef":4323,"Ġbehav":4324,"ĠEntertain":4325,"rupt":4326,"Ġdesignated":4327,"Ġhus":4328,"ĠSil":4329,"load":4330,"Ġess":4331,"Ġ1941":4332,"Ġ44":4333,"rel":4334,"Ġofficials":4335,"ĠCroat":4336,"Ġlog":4337,"Ġstruck":4338,"mas":4339,"Ġconver":4340,"mond":4341,"ĠMuseum":4342,"Ġactivity":4343,"stein":4344,"Ġinfluenced":4345,"Ġcombined":4346,"Ġtransl":4347,"Ġtask":4348,"ĠSeries":4349,"cers":4350,"Ġwear":4351,"olved":4352,"Ġsearch":4353,"ĠPan":4354,"while":4355,"ils":4356,"Ġvess":4357,"Ġthous":4358,"ĠLine":4359,"Ġcalling":4360,"pe":4361,"Ġgar":4362,"Ġ150":4363,"Ġalongside":4364,"Ġnortheast":4365,"ĠFred":4366,"Ġseconds":4367,"Ġbatter":4368,"ya":4369,"ĠBrigade":4370,"ux":4371,"ĠBat":4372,"Ġsout":4373,"Ġsources":4374,"Ġwinter":4375,"ĠAmericans":4376,"orses":4377,"under":4378,"Ġbackground":4379,"Ġwebs":4380,"ĠCarl":4381,"ĠTw":4382,"ĠItaly":4383,"aven":4384,"Ġtheory":4385,"Ġseg":4386,"ĠWay":4387,"mark":4388,"Ġice":4389,"aga":4390,"Ġrecent":4391,"Ġgained":4392,"Ġsuc":4393,"ini":4394,"Ġnominated":4395,"rative":4396,"ĠSaint":4397,"Ġthir":4398,"Ġcrow":4399,"Ġplatform":4400,"ĠYoun":4401,"Ġelectric":4402,"ĠTim":4403,"Ġartists":4404,"Ġproblem":4405,"Ġmem":4406,"ĠLuc":4407,"Ġencour":4408,"ĠEntertainment":4409,"Ġwidely":4410,"Ġnaval":4411,"Ġsystems":4412,"Ġpromoted":4413,"ĠRegiment":4414,"quarters":4415,"ĠThree":4416,"Ġconfirmed":4417,"nown":4418,"ĠIre":4419,"iano":4420,"Ġnews":4421,"illa":4422,"Ġreaching":4423,"ĠEver":4424,"Ġproved":4425,"Ġresults":4426,"ĠAvenue":4427,"HL":4428,"osaur":4429,"Ġpassing":4430,"ibrary":4431,"Ġalbums":4432,"rate":4433,"adel":4434,"Ġexplained":4435,"Ġsubsequent":4436,"Ġgreatest":4437,"ĠForm":4438,"Ġconflict":4439,"ĠLittle":4440,"ĠIreland":4441,"Ġinvasion":4442,"ota":4443,"Ġcontent":4444,"ĠFleet":4445,"Ġwick":4446,"ĠPop":4447,"Ġcoming":4448,"Ġcharge":4449,"Ġpeace":4450,"Ġsixth":4451,"Ġresist":4452,"Ġhero":4453,"Ġnorthwest":4454,"onn":4455,"Ġcounty":4456,"ube":4457,"Ġcorn":4458,"Ġshortly":4459,"Ġweather":4460,"ĠGre":4461,"Ġversions":4462,"Ġ1943":4463,"Ġadj":4464,"oured":4465,"Ġserve":4466,"Ġcausing":4467,"ĠConf":4468,"Ġ1989":4469,"TV":4470,"Ġsays":4471,"ĠLee":4472,"Ġsust":4473,"yond":4474,"Ġexpressed":4475,"Ġpath":4476,"aling":4477,"Ġreception":4478,"Ġseek":4479,"Ġburn":4480,"Ġir":4481,"itness":4482,"iced":4483,"Ġresidents":4484,"Ġborder":4485,"Ġemot":4486,"Ġsoundtrack":4487,"Ġcities":4488,"Ġsn":4489,"ĠCatholic":4490,"Ġseasons":4491,"Ġappearances":4492,"Ġfavour":4493,"Ġsense":4494,"ategory":4495,"omy":4496,"ĠValley":4497,"ym":4498,"Ġsexual":4499,"ĠWind":4500,"Ġrequire":4501,"Ġchem":4502,"Ġhospital":4503,"town":4504,"Ġgreen":4505,"ĠVan":4506,"Ġidentified":4507,"Ġphysical":4508,"ĠTer":4509,"Ġolder":4510,"ĠHurricane":4511,"ote":4512,"ancy":4513,"ips":4514,"Ġhands":4515,"ĠVictoria":4516,"ĠMod":4517,"ĠGood":4518,"Ġtells":4519,"Ġ51":4520,"Ġoffer":4521,"Ġtrue":4522,"Ġdocument":4523,"Ġdedic":4524,"bit":4525,"Ġkg":4526,"ighth":4527,"Ġiron":4528,"ero":4529,"Ġartillery":4530,"Ġrepresented":4531,"ĠMax":4532,"Ġweapons":4533,"arden":4534,"bon":4535,"Ġahead":4536,"unction":4537,"eption":4538,"itan":4539,"yon":4540,"Ġnegot":4541,"Ġgas":4542,"ylvania":4543,"Ġheavily":4544,"Ġeas":4545,"Ġpun":4546,"ĠLiber":4547,"za":4548,"ĠHal":4549,"Ġsupp":4550,"abeth":4551,"ĠEll":4552,"ĠNin":4553,"Ġdefense":4554,"itable":4555,"Ġstudent":4556,"ĠSant":4557,"Ġimage":4558,"ĠNorm":4559,"Ġspread":4560,"Ġalone":4561,"Ġapparent":4562,"Ġstudies":4563,"Ġofficially":4564,"ĠLight":4565,"ĠShow":4566,"ĠMiddle":4567,"Ġhusband":4568,"ĠCommun":4569,"AS":4570,"Ġexecutive":4571,"Ġdistrict":4572,"Ġfarm":4573,"ĠDev":4574,"ĠWeek":4575,"ĠDutch":4576,"essions":4577,"Ġinstit":4578,"Ġdebuted":4579,"ĠCharl":4580,"Ġprominent":4581,"ĠRay":4582,"Ġcapture":4583,"ĠAlb":4584,"ĠBus":4585,"Ġconsisted":4586,"Ġfloor":4587,"ĠProdu":4588,"Ġinjury":4589,"Ġwild":4590,"Ġsend":4591,"Ġpack":4592,"Ġequipment":4593,"Ġorganization":4594,"Ġfired":4595,"Ġbit":4596,"ĠLive":4597,"Ġstone":4598,"Ġpattern":4599,"Ġargued":4600,"Ġaired":4601,"Ġresc":4602,"AA":4603,"Ġfigures":4604,"olt":4605,"Ġprepar":4606,"Ġsurpris":4607,"Ġinstrument":4608,"Ġexped":4609,"Ġgrowth":4610,"Ġcouple":4611,"acity":4612,"Ġdoing":4613,"Ġreturning":4614,"By":4615,"Ġcontemporary":4616,"pool":4617,"ĠTop":4618,"Ġpict":4619,"ockey":4620,"ĠHistor":4621,"Ġhun":4622,"ushed":4623,"ĠLo":4624,"Ġpoet":4625,"Ġring":4626,"Ġpal":4627,"Ġweight":4628,"urban":4629,"Ġcert":4630,"Ġdrug":4631,"Ġlaid":4632,"Ġleaders":4633,"ĠAut":4634,"Ġdoub":4635,"Ġaffected":4636,"When":4637,"ĠMa":4638,"Ġmatter":4639,"Ġpieces":4640,"bur":4641,"Ġhabit":4642,"Ġmagn":4643,"ĠFar":4644,"eld":4645,"lines":4646,"lers":4647,"Ġstep":4648,"Ġeth":4649,"Ġmaintained":4650,"Ġpropos":4651,"ĠAlbert":4652,"ĠCivil":4653,"resp":4654,"Ġearth":4655,"hew":4656,"rog":4657,"appen":4658,"Ġoccasion":4659,"Ġvisited":4660,"ĠTod":4661,"ĠWork":4662,"Ġtun":4663,"ĠIll":4664,"Ġrang":4665,"ĠTay":4666,"Ġcomes":4667,"Ġcommunic":4668,"Ġhere":4669,"Ġshell":4670,"Ġspeech":4671,"Ġcriticized":4672,"Ġcrowd":4673,"Ġ600":4674,"ports":4675,"Ġactivities":4676,"Ġtermin":4677,"Ġstra":4678,"ees":4679,"ĠNorthern":4680,"ĠYoung":4681,"ĠCarolina":4682,"ĠFootball":4683,"ental":4684,"inson":4685,"Ġattract":4686,"ĠTy":4687,"ĠEliz":4688,"acement":4689,"Ġexec":4690,"ĠDun":4691,"Ġcitiz":4692,"ifying":4693,"Ġtournament":4694,"Ġreign":4695,"Ġtoward":4696,"Ġsingles":4697,"Ġemph":4698,"Ġhall":4699,"ĠJul":4700,"Ġox":4701,"emic":4702,"Ġtrees":4703,"Ġreference":4704,"Ġformation":4705,"ocked":4706,"Ġsenior":4707,"ĠStorm":4708,"Ġsetting":4709,"elve":4710,"ĠBond":4711,"Ġadapt":4712,"edd":4713,"ĠKr":4714,"Ġsurre":4715,"Ġterritory":4716,"Ġworldwide":4717,"Ġmedical":4718,"ĠAv":4719,"ĠDirect":4720,"Ġtrying":4721,"ĠHomer":4722,"Åį":4723,"Ġunk":4724,"Ġstations":4725,"Ġbud":4726,"ĠSeveral":4727,"Ġappl":4728,"ruit":4729,"Ġbirds":4730,"estic":4731,"Ġpan":4732,"Ġ1987":4733,"Ġdelay":4734,"ners":4735,"Ġmachine":4736,"Ġfellow":4737,"ala":4738,"Ġclaims":4739,"iro":4740,"Ġdoll":4741,"ĠFantasy":4742,"ĠAdd":4743,"Ġmurder":4744,"embly":4745,"Ġhistorian":4746,"ĠRy":4747,"Ġguest":4748,"ĠFre":4749,"ĠSystem":4750,"ĠDistrict":4751,"eed":4752,"Ġbul":4753,"Ġrainfall":4754,"Ġrisk":4755,"ĠGovernment":4756,"Ġdog":4757,"Ġfully":4758,"Ġaccident":4759,"Ġcell":4760,"Ġvalue":4761,"Ġ1988":4762,"Ġload":4763,"ivity":4764,"Ġtherefore":4765,"gian":4766,"uled":4767,"Ġsplit":4768,"Ġchosen":4769,"Ġtreatment":4770,"Ġuniversity":4771,"ĠTropical":4772,"ĠRam":4773,"omers":4774,"ĠBackground":4775,"Ġgod":4776,"ĠScottish":4777,"ĠHolly":4778,"ĠDam":4779,"Ġtwice":4780,"ĠMen":4781,"Ġ53":4782,"velopment":4783,"Ġterr":4784,"Ġfrequently":4785,"Ġsupply":4786,"Ġcontest":4787,"uls":4788,"ĠStudios":4789,"Ġreports":4790,"ĠGuard":4791,"stone":4792,"ĠOrig":4793,"Ġleaves":4794,"rael":4795,"resh":4796,"uct":4797,"Ġgovernor":4798,"Ġsens":4799,"Ġremark":4800,"ĠDi":4801,"Ġpaper":4802,"ĠGovernor":4803,"aved":4804,"stitution":4805,"Ġlabel":4806,"Ġfaced":4807,"ampion":4808,"ĠPolish":4809,"ordin":4810,"Ġagg":4811,"ĠSenate":4812,"Ġdyn":4813,"iÄĩ":4814,"ror":4815,"Ġwalls":4816,"Ġopin":4817,"Ġfollows":4818,"Ġhyd":4819,"Ġbillion":4820,"anger":4821,"ĠDuke":4822,"ĠPenns":4823,"ledge":4824,"Ġoperated":4825,"Ġgrew":4826,"ĠGirl":4827,"Ġmanu":4828,"ĠRog":4829,"ayer":4830,"Ġsurrounding":4831,"ĠHome":4832,"ĠField":4833,"ĠMat":4834,"Ġcontained":4835,"Ġdegree":4836,"onents":4837,"Ġherself":4838,"Ġ85":4839,"Ġcondition":4840,"ĠEastern":4841,"Ġhorses":4842,"Ġplanet":4843,"Ġmanufact":4844,"ĠDaniel":4845,"Ġaccompan":4846,"Ġwounded":4847,"Ġtypically":4848,"Ġescape":4849,"Ġut":4850,"Ġswe":4851,"agn":4852,"ĠMarsh":4853,"amber":4854,"Ġpasses":4855,"illy":4856,"eller":4857,"rect":4858,"ĠColon":4859,"Ġsimply":4860,"ĠChristmas":4861,"Ġcolor":4862,"ĠSk":4863,"orter":4864,"isco":4865,"Ġmaster":4866,"ĠBeat":4867,"ĠHard":4868,"Ġfuel":4869,"ĠBecause":4870,"Ġbrown":4871,"Ġsle":4872,"Ġrailway":4873,"Ġelement":4874,"Ġdraft":4875,"utation":4876,"ĠLike":4877,"gend":4878,"Ġlives":4879,"ety":4880,"ĠRom":4881,"Ġeditor":4882,"Ġorders":4883,"Ġarms":4884,"ĠTem":4885,"ĠBre":4886,"ĠAllied":4887,"rid":4888,"antly":4889,"Ġserving":4890,"Ġbal":4891,"Ġnothing":4892,"Ġauthority":4893,"Ġchose":4894,"Ġopposed":4895,"Ġworkers":4896,"Ġvote":4897,"Ġconsecutive":4898,"Ġcamer":4899,"Ġcannot":4900,"isters":4901,"Ġmoment":4902,"Ġnewly":4903,"pass":4904,"ricult":4905,"izes":4906,"Ġnative":4907,"ĠNight":4908,"Ġunknown":4909,"ancing":4910,"Ġparticipated":4911,"ĠSub":4912,"Ġgrowing":4913,"ucky":4914,"Ġwebsite":4915,"ias":4916,"aming":4917,"Ġcasual":4918,"ĠLew":4919,"Ġ1986":4920,"Ġemphas":4921,"uous":4922,"Ġentr":4923,"Ġphil":4924,"Ġattrib":4925,"igg":4926,"Ġfan":4927,"Ġproducers":4928,"ĠGal":4929,"fully":4930,"ĠJon":4931,"Ġrear":4932,"ading":4933,"ĠRos":4934,"ĠKar":4935,"Ġ54":4936,"ographer":4937,"Ġbass":4938,"Ġfair":4939,"ĠOperation":4940,"mit":4941,"Ġlosing":4942,"Ġadopted":4943,"Ġadvanced":4944,"Ġfilming":4945,"Ġextra":4946,"Ġheard":4947,"enge":4948,"ĠFestival":4949,"Ġsevere":4950,"Ġoffensive":4951,"Ġfeed":4952,"ilies":4953,"ĠOs":4954,"Ġfiction":4955,"andy":4956,"azz":4957,"Ġopposition":4958,"imens":4959,"Ġextend":4960,"Ġspirit":4961,"ĠCastle":4962,"ĠRod":4963,"Ġcapacity":4964,"enger":4965,"Ġbasis":4966,"Ġsequence":4967,"Ġactors":4968,"ĠIslands":4969,"Ġcouncil":4970,"ĠCorn":4971,"Ġpsych":4972,"Ġ95":4973,"Ġguard":4974,"Ġends":4975,"pton":4976,"Ġnewspaper":4977,"iot":4978,"Ġweak":4979,"Ġsquadron":4980,"gu":4981,"ype":4982,"Ġadvant":4983,"Ġsilver":4984,"Ġprin":4985,"Ġabandoned":4986,"ĠBart":4987,"Ġ56":4988,"rong":4989,"ĠWilson":4990,"orship":4991,"ĠTaylor":4992,"Ġcompar":4993,"Ġrival":4994,"Ġrom":4995,"Ġ177":4996,"Ġprompt":4997,"Ġextr":4998,"ĠPennsylvania":4999,"FA":5000,"Ġflying":5001,"ables":5002,"Ġkick":5003,"ĠElizabeth":5004,"Ġhonor":5005,"more":5006,"isers":5007,"Ġelev":5008,"Ġcreating":5009,"ĠPers":5010,"ĠJud":5011,"ocated":5012,"ĠIrish":5013,"lement":5014,"ĠSound":5015,"ĠPen":5016,"Ġfilmed":5017,"ager":5018,"Ġlaunch":5019,"Ġcoal":5020,"Ġregarded":5021,"ĠAndrew":5022,"ĠJersey":5023,"Ġhappen":5024,"ĠReception":5025,"ĠOcean":5026,"Ġexpansion":5027,"Ġnormal":5028,"Ġast":5029,"Ġenter":5030,"Ġcriticism":5031,"ĠJoe":5032,"Ġindividuals":5033,"ĠAlexander":5034,"Ġhomes":5035,"Ġagreement":5036,"Ġbeyond":5037,"ĠExp":5038,"Ġincident":5039,"add":5040,"Ġfailure":5041,"Ġdeploy":5042,"Ġspect":5043,"Ġevac":5044,"Ġ178":5045,"Ġdismiss":5046,"apers":5047,"Ġfamous":5048,"Ġeye":5049,"Ġchair":5050,"Ġspring":5051,"ano":5052,"ĠTech":5053,"ĠJac":5054,"TC":5055,"Ġsail":5056,"Ġsports":5057,"Ġmeasure":5058,"uses":5059,"ĠSpain":5060,"Ġchalleng":5061,"Although":5062,"tar":5063,"gar":5064,"min":5065,"Ġpossibly":5066,"anda":5067,"Ġhistorical":5068,"Ġnegative":5069,"Ġ97":5070,"ĠCoast":5071,"Ġliber":5072,"Ġinte":5073,"Ġ1939":5074,"Ġboat":5075,"ĠMike":5076,"Ġbodies":5077,"Ġachieved":5078,"ĠBlue":5079,"Ġstrike":5080,"Ġbelieve":5081,"Ġcontact":5082,"20":5083,"ĠCard":5084,"Ġmob":5085,"ĠSquare":5086,"Ġprogress":5087,"Ġroles":5088,"BA":5089,"Ġunf":5090,"rich":5091,"uman":5092,"Ġkilling":5093,"Ġ76":5094,"Ġnarrow":5095,"Ġretired":5096,"imet":5097,"Ġideas":5098,"ĠGall":5099,"ĠTra":5100,"ifications":5101,"ĠDet":5102,"ienced":5103,"Ġdrive":5104,"Ġdisease":5105,"ĠInstitute":5106,"ĠAre":5107,"Ġur":5108,"ĠMD":5109,"ĠSS":5110,"Ġtorpedo":5111,"mosp":5112,"onent":5113,"Ġbenef":5114,"Ġrid":5115,"Ġbriefly":5116,"Ġvo":5117,"Ġeffective":5118,"Ġimag":5119,"Ġarmed":5120,"Ġtower":5121,"Ġapplic":5122,"ĠInst":5123,"ĠWat":5124,"Ġbudget":5125,"Ġdiam":5126,"Ġreceive":5127,"Ġrepeated":5128,"Ġadministration":5129,"Ġgranted":5130,"Ġnecessary":5131,"ĠLand":5132,"Ġperman":5133,"Ġpersonnel":5134,"Ġtree":5135,"Ġ1968":5136,"ĠRevolution":5137,"Ġroads":5138,"Ġrejected":5139,"anwhile":5140,"edom":5141,"ev":5142,"Ġtable":5143,"aby":5144,"Ġtwelve":5145,"aith":5146,"Ġkilometres":5147,"Ġpoll":5148,"ĠWW":5149,"iner":5150,"Ġpet":5151,"ĠIsrael":5152,"Ġimproved":5153,"Ġleadership":5154,"Ġ1985":5155,"ĠGerm":5156,"Ġgross":5157,"Ġmis":5158,"ĠBroad":5159,"Ġinterchange":5160,"avalry":5161,"ĠRepublican":5162,"Ġextensive":5163,"la":5164,"Ġcolumn":5165,"Ġinh":5166,"Ġdata":5167,"kins":5168,"Ġyellow":5169,"imal":5170,"ĠHarry":5171,"ourney":5172,"Ġinfantry":5173,"Ġturns":5174,"Ġplants":5175,"Ġpurpose":5176,"Ġstraight":5177,"Ġ66":5178,"Ġmanagement":5179,"Ġlands":5180,"ĠBor":5181,"Ġexpress":5182,"iments":5183,"Ġlanding":5184,"Ġdefin":5185,"Ġparalle":5186,"ĠDoctor":5187,"Ġdescribes":5188,"ĠCat":5189,"Ġexpanded":5190,"Ġseat":5191,"Ġsolo":5192,"Ġfranch":5193,"Ġsuccessfully":5194,"Ġchoice":5195,"Ġbroken":5196,"Ġmile":5197,"ĠSund":5198,"ĠBoard":5199,"lusion":5200,"iny":5201,"Ġcrossing":5202,"Ġlearn":5203,"ocks":5204,"ĠFam":5205,"adelph":5206,"Ġdidn":5207,"cÃ©":5208,"ĠAlbum":5209,"Ġ61":5210,"Ġfought":5211,"oln":5212,"Ġdeliver":5213,"Ġintellig":5214,"ĠWhat":5215,"Ġexplos":5216,"erc":5217,"ĠCD":5218,"Ġanimal":5219,"Ġorganized":5220,"Ġcaught":5221,"Following":5222,"Ġexcl":5223,"uate":5224,"ĠCub":5225,"ĠBul":5226,"ĠWild":5227,"Ġvehicles":5228,"ĠSecretary":5229,"Ġcommissioned":5230,"Ġsuggests":5231,"ĠLind":5232,"ĠThough":5233,"Ġacquired":5234,"haps":5235,"Ġ800":5236,"ĠPhiladelph":5237,"Ġplaces":5238,"Ġcommittee":5239,"Ġchor":5240,"ĠPublic":5241,"etball":5242,"Ġroof":5243,"Ġancient":5244,"attle":5245,"Ġdrama":5246,"iday":5247,"ĠEnd":5248,"Ġcreation":5249,"set":5250,"Ġ1984":5251,"ĠOhio":5252,"Ġtypes":5253,"stream":5254,"Ġgives":5255,"Ġglob":5256,"Ġarticle":5257,"ĠBraz":5258,"Ġcomedy":5259,"Ġseventh":5260,"ĠArthur":5261,"ico":5262,"iana":5263,"Ġunsu":5264,"Ġrow":5265,"Ġnuclear":5266,"Ġprefer":5267,"ĠMul":5268,"ĠClark":5269,"iable":5270,"Ġwave":5271,"Ġsoft":5272,"ĠBefore":5273,"iate":5274,"Ġfat":5275,"hi":5276,"appy":5277,"ĠPhiladelphia":5278,"Ġauthorities":5279,"etts":5280,"Ġ120":5281,"Ġheadquarters":5282,"war":5283,"umes":5284,"Ġcontain":5285,"ĠMid":5286,"Ġcenturies":5287,"Ġcommonly":5288,"Ġdetermined":5289,"Ġislands":5290,"Ġgenus":5291,"ĠWrit":5292,"iations":5293,"Ġmentioned":5294,"Ġrecently":5295,"Ar":5296,"rif":5297,"ĠElect":5298,"Ġlooking":5299,"Ġbott":5300,"ĠRet":5301,"Ġcontrolled":5302,"igr":5303,"ĠIS":5304,"Ġbeaut":5305,"ĠRA":5306,"Ġ1967":5307,"restling":5308,"Ġstreet":5309,"akers":5310,"Ġroll":5311,"Ġsets":5312,"Ġfamilies":5313,"ĠGeorgia":5314,"Ġhousehold":5315,"Ġsecurity":5316,"iverpool":5317,"Ġupgr":5318,"arts":5319,"Ġfinds":5320,"Ġexperiment":5321,"oted":5322,"Ġaim":5323,"ĠHead":5324,"Ġsuppor":5325,"ura":5326,"ĠWars":5327,"Ġstanding":5328,"Ġadvert":5329,"Ġdecre":5330,"Ġdrop":5331,"ima":5332,"There":5333,"tendo":5334,"ĠUs":5335,"Ġ57":5336,"Ġacad":5337,"Ġillust":5338,"ĠFurther":5339,"ĠRussia":5340,"Ġsinging":5341,"Ġwithdraw":5342,"oles":5343,"Ġbattalion":5344,"ĠLes":5345,"Ġunique":5346,"Ġreflect":5347,"itled":5348,"uting":5349,"ĠUl":5350,"rig":5351,"agement":5352,"Ã¨":5353,"Ġcontaining":5354,"Ġentirely":5355,"Ġcultural":5356,"Ġheight":5357,"ĠHit":5358,"Ġdeck":5359,"ĠMov":5360,"fort":5361,"Ġdial":5362,"Ġorchest":5363,"Ġfish":5364,"ĠCambridge":5365,"ĠMir":5366,"ĠBell":5367,"Ġfinish":5368,"Ġtouchdown":5369,"incoln":5370,"Ġcontributed":5371,"Ġprotect":5372,"Ġthemes":5373,"ĠEach":5374,"ishes":5375,"Ġprovides":5376,"Ġyounger":5377,"oma":5378,"Ġdefence":5379,"ĠSher":5380,"ĠAsh":5381,"ĠBurn":5382,"Ġflooding":5383,"Ġunp":5384,"acks":5385,"ĠAsia":5386,"Ġmist":5387,"ĠJer":5388,"ĠPrime":5389,"ĠKorean":5390,"ĠNintendo":5391,"Ġawards":5392,"Ġtitles":5393,"Ġstrik":5394,"ĠColumbia":5395,"ĠFer":5396,"Ġatmosp":5397,"Ġpurchased":5398,"ĠProt":5399,"apore":5400,"ĠOf":5401,"Station":5402,"ĠFe":5403,"outs":5404,"Ġsac":5405,"Ġla":5406,"amin":5407,"ĠBru":5408,"Ġarrival":5409,"ipl":5410,"Ġscheduled":5411,"Ġdefensive":5412,"Ġpowers":5413,"Ġresemb":5414,"ĠProduction":5415,"Ġaccompanied":5416,"illing":5417,"Ġ1983":5418,"Ġceremony":5419,"Ġquite":5420,"ĠJewish":5421,"inity":5422,"Ġconvers":5423,"respond":5424,"Ġexpedition":5425,"Ġthing":5426,"Ġunus":5427,"Ġworth":5428,"Ġperfect":5429,"ĠFrancisco":5430,"Ġlocations":5431,"Ġexisting":5432,"icial":5433,"water":5434,"gn":5435,"Ġinteract":5436,"room":5437,"Ġperforming":5438,"Ġadvantage":5439,"ĠHy":5440,"atures":5441,"ĠEarl":5442,"Ġdedicated":5443,"Ġtry":5444,"ĠCommon":5445,"Ġ1969":5446,"Ġcomputer":5447,"While":5448,"Ġ1964":5449,"laim":5450,"ĠArg":5451,"Ġphilos":5452,"ĠLincoln":5453,"ĠOffice":5454,"ĠBrazil":5455,"Ġextrem":5456,"ĠPerson":5457,"Ġintensity":5458,"Ġoccupied":5459,"Ġstore":5460,"ulate":5461,"ĠNever":5462,"ava":5463,"Ġwhy":5464,"Ġsquad":5465,"Ġ1914":5466,"Ġfresh":5467,"ĠSingapore":5468,"Ġmounted":5469,"Ġ74":5470,"Ġbat":5471,"ĠLiverpool":5472,"Ġ58":5473,"Ġ1918":5474,"agan":5475,"ashion":5476,"ĠCy":5477,"ĠPlayStation":5478,"och":5479,"Ġcricket":5480,"Ġnob":5481,"Ġclosely":5482,"Ġmouth":5483,"hens":5484,"Ġfirm":5485,"Ġcurrently":5486,"Ġconsists":5487,"yles":5488,"Ġfix":5489,"ilton":5490,"ĠChild":5491,"Ġsession":5492,"roll":5493,"Ġ1971":5494,"wall":5495,"Ġsimple":5496,"Ġindustrial":5497,"ĠDisney":5498,"racted":5499,"Ġtail":5500,"Ġpiano":5501,"Ġfacilities":5502,"Ġ1982":5503,"Ġelimin":5504,"ĠâĪ":5505,"Ġ1966":5506,"Ġsupporting":5507,"Ġdrawn":5508,"Ġlic":5509,"hol":5510,"zant":5511,"Ġcold":5512,"Ġ1972":5513,"Ġbelong":5514,"Ġtrains":5515,"Ġegg":5516,"Ġprotection":5517,"Ġrated":5518,"Ġboats":5519,"ĠJenn":5520,"Ġgraph":5521,"ĠSR":5522,"ĠLar":5523,"Ġrise":5524,"Ġtim":5525,"rons":5526,"ĠBalt":5527,"Ġdefined":5528,"ĠJean":5529,"ĠDark":5530,"ĠGil":5531,"Ġ1979":5532,"ĠRel":5533,"ĠVen":5534,"ĠCarey":5535,"Ġselection":5536,"Ġsteam":5537,"ĠEp":5538,"Ġregions":5539,"Ġsubmar":5540,"Ġprotected":5541,"Ġcalls":5542,"ĠConference":5543,"ĠRol":5544,"ĠOlympic":5545,"uzz":5546,"ĠRailway":5547,"ao":5548,"Ġstructures":5549,"Ġmotion":5550,"Ġcomic":5551,"Ġrot":5552,"ĠByzant":5553,"Ġthrow":5554,"mouth":5555,"Ġtrail":5556,"Ġaid":5557,"Ġfocused":5558,"Ġopportunity":5559,"Ġcry":5560,"Ġreceiving":5561,"Ġlabor":5562,"Ġshark":5563,"Ġengaged":5564,"With":5565,"ĠDie":5566,"ĠShort":5567,"Ġshooting":5568,"Ġanalysis":5569,"Ġ#":5570,"ĠNHL":5571,"Ġcorrespond":5572,"Ġcitizens":5573,"Ġhair":5574,"ĠPeople":5575,"ĠLis":5576,"Ġlap":5577,"usc":5578,"Ġ1965":5579,"ola":5580,"iration":5581,"Ġpros":5582,"Ġnotable":5583,"Ġstrengt":5584,"Ġobserv":5585,"Ġsport":5586,"Ġ1975":5587,"Ġadap":5588,"Ġmotor":5589,"ĠHay":5590,"ĠJr":5591,"ĠPot":5592,"Ġexperienced":5593,"ĠAnderson":5594,"ĠHun":5595,"ĠGermans":5596,"Ġconference":5597,"Ġholding":5598,"Ġproviding":5599,"ĠBrook":5600,"ĠThrough":5601,"ĠEmperor":5602,"ĠLewis":5603,"ĠGulf":5604,"ĠDevelopment":5605,"ults":5606,"ĠOrder":5607,"Ġvisual":5608,"Ġresident":5609,"Ġmountain":5610,"Ġdry":5611,"Ġhired":5612,"Ġsoutheast":5613,"Ġcharts":5614,"Ġeyes":5615,"Ġviewed":5616,"unior":5617,"ĠBad":5618,"ĠTurn":5619,"Ġ59":5620,"ifically":5621,"Ġrapidly":5622,"ĠHollywood":5623,"ĠHon":5624,"Ġrecognized":5625,"inger":5626,"Ġ1974":5627,"Ġbranch":5628,"Ġmerch":5629,"Ġvolume":5630,"ĠSu":5631,"ĠTam":5632,"Ġtransform":5633,"ĠSerb":5634,"opher":5635,"ĠRadio":5636,"ĠPress":5637,"Ġscholars":5638,"vention":5639,"Ġsites":5640,"elly":5641,"ĠMiller":5642,"ĠGi":5643,"ĠConn":5644,"Ġcasualties":5645,"inth":5646,"Ġgain":5647,"ĠUr":5648,"Ġrob":5649,"Ġshared":5650,"Ġ99":5651,"Ġteach":5652,"iter":5653,"Ġmut":5654,"Ġ1973":5655,"ĠDemocratic":5656,"Ġconcer":5657,"Ġpublication":5658,"Ġvac":5659,"Ġmoder":5660,"Ġparallel":5661,"Ġprote":5662,"Ġtemperature":5663,"zer":5664,"Ġdigital":5665,"Ġeconomy":5666,"essed":5667,"burgh":5668,"Ġdeveloping":5669,"ĠGrant":5670,"ĠMah":5671,"Ġreaction":5672,"FL":5673,"Ġedge":5674,"ĠSummer":5675,"sey":5676,"standing":5677,"Ġsteel":5678,"ĠMot":5679,"Ġintersection":5680,"Ġcool":5681,"Ġ62":5682,"Ġcart":5683,"friend":5684,"Ġ1976":5685,"Ġsymbol":5686,"Ġapproved":5687,"ĠChap":5688,"ĠLieutenant":5689,"Ġchance":5690,"Ġsecondary":5691,"ĠShak":5692,"Ġ63":5693,"ĠSteve":5694,"Ġwa":5695,"ĠEven":5696,"Ġvon":5697,"Ġlosses":5698,"ĠPu":5699,"Ġprepared":5700,"omew":5701,"Ġbelief":5702,"Ġsubstant":5703,"ĠVol":5704,"Ġletters":5705,"ĠBas":5706,"ĠBank":5707,"ĠRome":5708,"Ġwitness":5709,"Ġsignificantly":5710,"ĠSix":5711,"ingly":5712,"ĠDavis":5713,"eg":5714,"Ġenl":5715,"Ġbands":5716,"iful":5717,"ĠAlso":5718,"Ġharm":5719,"Ġsort":5720,"rence":5721,"ĠHMS":5722,"Ġsave":5723,"ĠBrian":5724,"Ġdomestic":5725,"yer":5726,"Ġ73":5727,"ĠFall":5728,"Ġmyth":5729,"Ġrac":5730,"Ġ77":5731,"Ġfranchise":5732,"Ġknew":5733,"ĠMusl":5734,"ĠDaily":5735,"ĠAddition":5736,"Ġven":5737,"Ġliterature":5738,"Ġgoes":5739,"ĠConst":5740,"Ġunsuccess":5741,"Ġactress":5742,"Ġinstruct":5743,"Ġsouthwest":5744,"Ġtechnology":5745,"Ġheads":5746,"Ġroughly":5747,"Ġ250":5748,"Ġsurvey":5749,"ĠSpecial":5750,"Ġcard":5751,"ĠSa":5752,"Ġadvent":5753,"ĠMu":5754,"Ġdescend":5755,"ns":5756,"Ġmic":5757,"ographic":5758,"ĠBeyon":5759,"theless":5760,"Ġpainting":5761,"awa":5762,"ĠWalter":5763,"Ġadult":5764,"Ġanything":5765,"ients":5766,"Ġcars":5767,"Ġurban":5768,"Ġprojects":5769,"Ġsemi":5770,"break":5771,"Ġassault":5772,"Ġexact":5773,"Ġbrothers":5774,"eral":5775,"amm":5776,"achus":5777,"Ġgameplay":5778,"Ġresistance":5779,"Ġpitch":5780,"Ġlb":5781,"unte":5782,"ĠBarb":5783,"Ġneighbor":5784,"ĠSyd":5785,"Ġhyp":5786,"ĠPrinc":5787,"Ġstoryline":5788,"Ġshape":5789,"Ġreasons":5790,"ĠLab":5791,"Ġrules":5792,"Ġemployed":5793,"ĠProv":5794,"ĠSupreme":5795,"ĠWater":5796,"ĠGib":5797,"Ġcore":5798,"Ġdaily":5799,"Ġinjured":5800,"Ġtank":5801,"Ġwatched":5802,"oh":5803,"vest":5804,"ĠDown":5805,"osa":5806,"ĠKey":5807,"asty":5808,"ĠPoint":5809,"iminal":5810,"Ġshall":5811,"Ġagent":5812,"Ġcab":5813,"Ġpopularity":5814,"Ch":5815,"box":5816,"ĠUN":5817,"Ġcomposition":5818,"Ġ1946":5819,"ologist":5820,"ĠTro":5821,"Ġign":5822,"ĠNaz":5823,"ropri":5824,"ĠKentucky":5825,"Ġsand":5826,"Ġperhaps":5827,"ĠLady":5828,"Ġadding":5829,"Ġenjoyed":5830,"Ġrenamed":5831,"Ġbor":5832,"Ġisol":5833,"Ġgetting":5834,"Ġopinion":5835,"ĠAtt":5836,"Ġdeclined":5837,"Ġfit":5838,"Ġcompris":5839,"Ġreputation":5840,"ĠCommand":5841,"Ġ67":5842,"ĠGord":5843,"omic":5844,"ĠIV":5845,"Ġ1981":5846,"Ġconnected":5847,"Ġshaped":5848,"Ġestate":5849,"gers":5850,"Ġretire":5851,"Ġmuseum":5852,"Ġdrew":5853,"Ġundert":5854,"Ġregarding":5855,"worth":5856,"ĠOlympics":5857,"Ã¤":5858,"Ġpoem":5859,"Ġstages":5860,"Ġconverted":5861,"inking":5862,"Ġ1917":5863,"Ġviews":5864,"ĠNap":5865,"heim":5866,"Ġrend":5867,"ĠBeyoncÃ©":5868,"Ġlov":5869,"Ġnor":5870,"itors":5871,"onder":5872,"ĠIndust":5873,"ceived":5874,"istan":5875,"Ġagricult":5876,"ĠâĪĴ":5877,"Ġallows":5878,"ua":5879,"onym":5880,"ador":5881,"ĠStation":5882,"Ġalternative":5883,"Ġdistingu":5884,"ĠColonel":5885,"atre":5886,"achusetts":5887,"ĠInc":5888,"ĠUpon":5889,"ĠNorway":5890,"Ġcalc":5891,"According":5892,"ulpt":5893,"Ġheaded":5894,"Ġnick":5895,"Ġjourney":5896,"rin":5897,"ĠKen":5898,"Ġdepth":5899,"bound":5900,"Ġmissing":5901,"Ġcited":5902,"Ġincreasingly":5903,"avel":5904,"osl":5905,"verse":5906,"ĠLy":5907,"ĠIndepend":5908,"ĠMassachusetts":5909,"Ġsun":5910,"Ġstadium":5911,"Ġapproached":5912,"rets":5913,"Ġturning":5914,"ĠMos":5915,"Ġ68":5916,"ĠFair":5917,"ĠGreg":5918,"ĠAirport":5919,"Ġresponded":5920,"Ġ72":5921,"Ġplanning":5922,"Ġeasily":5923,"Ġknowledge":5924,"Ġexerc":5925,"Ġwealth":5926,"oir":5927,"Ġ96":5928,"enc":5929,"Ġoverl":5930,"ĠBase":5931,"ĠSpring":5932,"Ġcells":5933,"Ġfashion":5934,"Ġescort":5935,"ĠPhilipp":5936,"Ġsucceeded":5937,"athan":5938,"eper":5939,"ules":5940,"Ġcollected":5941,"Ġ1948":5942,"Ġequal":5943,"Ġ160":5944,"psons":5945,"rett":5946,"ĠAbb":5947,"Ġsafety":5948,"ĠWomen":5949,"ĠKir":5950,"Ġexistence":5951,"Ġconstitution":5952,"Ġrebu":5953,"ĠGolden":5954,"ĠDream":5955,"ilding":5956,"ignment":5957,"Ġauth":5958,"Ġintroduction":5959,"ĠSimpsons":5960,"Ġmodels":5961,"era":5962,"Ġoccas":5963,"ĠOnly":5964,"Ġsustained":5965,"ĠSand":5966,"Ġtrip":5967,"Ġlearned":5968,"ĠTen":5969,"Ġcolle":5970,"unicip":5971,"Ġ700":5972,"Ġpromotion":5973,"Ġtall":5974,"Ġoperating":5975,"apes":5976,"Ġcarrying":5977,"Ġbaseball":5978,"ii":5979,"Ġexchange":5980,"ĠMas":5981,"istol":5982,"Ġshowing":5983,"Ġrhy":5984,"Ġyouth":5985,"Ġlimit":5986,"ĠPrem":5987,"Ġburied":5988,"wise":5989,"Ġhumans":5990,"Ġ1978":5991,"Ġcredited":5992,"mitted":5993,"ĠWhit":5994,"come":5995,"Ġ87":5996,"uration":5997,"leton":5998,"ĠRoss":5999,"Ġdepend":6000,"Ġpul":6001,"Ġflu":6002,"Ġarranged":6003,"Ġimprove":6004,"zen":6005,"Ġseems":6006,"ĠWalk":6007,"Ġweakened":6008,"ĠImperial":6009,"Ġdesigns":6010,"ba":6011,"ĠMain":6012,"Ġimpl":6013,"Ġhydro":6014,"inary":6015,"Ġ1915":6016,"ĠOttoman":6017,"Ġproceed":6018,"Ġproducing":6019,"Ġathlet":6020,"Ġjoint":6021,"ĠBern":6022,"hat":6023,"iat":6024,"Ġfreeway":6025,"Ġpaint":6026,"Ġearliest":6027,"ĠVietnam":6028,"Ġlasted":6029,"Ġlandfall":6030,"Ġsettlement":6031,"ĠSus":6032,"ĠSongs":6033,"Ġnote":6034,"gal":6035,"Ġdescription":6036,"Ġretained":6037,"ĠAmong":6038,"Ġacres":6039,"state":6040,"ĠCape":6041,"icks":6042,"ĠHan":6043,"Ġ69":6044,"Ġlaws":6045,"Ġflat":6046,"Ġappoint":6047,"Ġgenre":6048,"For":6049,"Ġbed":6050,"ĠPoland":6051,"ĠSydney":6052,"ĠGra":6053,"ivalent":6054,"Ġprograms":6055,"eman":6056,"Ġassistant":6057,"Ġ1977":6058,"Ġreplace":6059,"Ġton":6060,"put":6061,"Ġplayoff":6062,"Ġ78":6063,"ĠRon":6064,"Ġreserve":6065,"Ġinstall":6066,"ĠHart":6067,"Ġconsc":6068,"Ġstatement":6069,"Ġapplied":6070,"ivered":6071,"ources":6072,"ĠNaval":6073,"issance":6074,"iling":6075,"Ġviolence":6076,"ĠOb":6077,"ĠBall":6078,"ato":6079,"insula":6080,"Ġscientific":6081,"Ġentrance":6082,"ĠPict":6083,"Ġcoastal":6084,"Ġcatch":6085,"iform":6086,"Ġtrust":6087,"Ġerr":6088,"otic":6089,"Ġvirt":6090,"Ġhits":6091,"Ġneut":6092,"Ġconsequ":6093,"eor":6094,"Ġaw":6095,"Ã¡n":6096,"osis":6097,"othes":6098,"iege":6099,"bell":6100,"reets":6101,"Ġexclus":6102,"Ġmaintain":6103,"Ġitems":6104,"Ġbattery":6105,"Ġcandidate":6106,"Ġ1963":6107,"Ġindicated":6108,"Ġ91":6109,"ĠPlan":6110,"Ġtowns":6111,"tical":6112,"Ġsculpt":6113,"Ġgradually":6114,"ader":6115,"ĠArts":6116,"Ġdistribution":6117,"Ġpolitics":6118,"ĠWho":6119,"Ġsynt":6120,"Ġdelivered":6121,"math":6122,"Ġ1916":6123,"ĠMTV":6124,"avig":6125,"Ġstopped":6126,"eler":6127,"Ġfilled":6128,"Ġindependence":6129,"Ġsections":6130,"Ġdetails":6131,"engers":6132,"han":6133,"ĠImp":6134,"Ġstream":6135,"ĠStew":6136,"ĠBowl":6137,"Ġtact":6138,"ĠDue":6139,"ĠKa":6140,"dd":6141,"oard":6142,"apped":6143,"Ġ94":6144,"Ġcombination":6145,"iger":6146,"onia":6147,"Ġselect":6148,"time":6149,"Ġsupplies":6150,"ĠJes":6151,"Ġways":6152,"Ġcinem":6153,"ĠAD":6154,"ĠMaryland":6155,"ĠConfeder":6156,"Ġparties":6157,"Ġengines":6158,"eke":6159,"Ġemp":6160,"Ġprisoners":6161,"Ġcamera":6162,"ĠLet":6163,"Ġglass":6164,"Ġappeal":6165,"ĠRoy":6166,"Ġaware":6167,"ĠSel":6168,"ads":6169,"ĠStadium":6170,"Ġregister":6171,"ira":6172,"Ġcampus":6173,"ushing":6174,"Ġ1919":6175,"Ġacts":6176,"Ġbask":6177,"emies":6178,"Ġvan":6179,"Ġextremely":6180,"ora":6181,"Ġentitled":6182,"ĠBal":6183,"izations":6184,"Ġsecure":6185,"Ġ1962":6186,"Ġalle":6187,"ĠNick":6188,"ĠOnce":6189,"Ġfinding":6190,"He":6191,"Ġ98":6192,"lee":6193,"Ġdecade":6194,"Ġonline":6195,"Ġty":6196,"ĠMoore":6197,"rell":6198,"ella":6199,"Ġwinner":6200,"poration":6201,"iversary":6202,"ĠEdu":6203,"Ġ81":6204,"ĠMeanwhile":6205,"idden":6206,"GN":6207,"lan":6208,"eless":6209,"Ġevening":6210,"inois":6211,"ĠVar":6212,"Ġinvestigation":6213,"Ġtick":6214,"ĠCa":6215,"ĠReview":6216,"Ġbought":6217,"ĠHa":6218,"Ġthreatened":6219,"ĠTheatre":6220,"Ġmessage":6221,"Ġadapted":6222,"Ġ71":6223,"Ġsurvived":6224,"Ġsomew":6225,"Ġknots":6226,"Ġuns":6227,"ĠMcG":6228,"Ġstudied":6229,"Ġ1938":6230,"ĠRhodes":6231,"Ġproposal":6232,"Ġtal":6233,"rec":6234,"Ġwrites":6235,"Ġarc":6236,"ender":6237,"Ġdeaths":6238,"Ġconsum":6239,"Ġaddress":6240,"Ġroutes":6241,"Ġruled":6242,"Ġregiment":6243,"Ġdownload":6244,"Ġwars":6245,"ashed":6246,"Ġrelief":6247,"Ġfear":6248,"Ġmales":6249,"ĠJay":6250,"Ġreduce":6251,"Ġreligion":6252,"ĠBos":6253,"Ġvoted":6254,"ieval":6255,"Ġspecifically":6256,"ĠMulder":6257,"Ġspons":6258,"Ġrevolution":6259,"ropol":6260,"Ġcrown":6261,"ĠFire":6262,"Ġphase":6263,"Ġduty":6264,"phoon":6265,"Ġkingdom":6266,"Ã¸":6267,"Ġrecalled":6268,"Ġportrayed":6269,"ĠCur":6270,"Ġfict":6271,"ansas":6272,"Ġ89":6273,"Ġsoul":6274,"ĠStaff":6275,"oz":6276,"Ġimplement":6277,"Ġcontroversy":6278,"ighters":6279,"iques":6280,"ĠGordon":6281,"ctions":6282,"Ġcauses":6283,"Ġemerg":6284,"ĠPass":6285,"Ġeverything":6286,"Ġbreeding":6287,"ĠAri":6288,"Ġreferences":6289,"Ġstret":6290,"ervative":6291,"Ġsell":6292,"Ġago":6293,"Ġcapable":6294,"Ġconvin":6295,"Ġimportance":6296,"Ġbottom":6297,"ĠBra":6298,"arp":6299,"Ġteacher":6300,"ician":6301,"aka":6302,"Ġmeters":6303,"ĠUnivers":6304,"Ġoffers":6305,"Ġ1956":6306,"ĠMemorial":6307,"ĠRun":6308,"Ġentry":6309,"Ġble":6310,"ĠBand":6311,"Ġtanks":6312,"ĠAge":6313,"Ġ82":6314,"senal":6315,"Ġsufficient":6316,"aints":6317,"Ġowner":6318,"Ġarrested":6319,"aked":6320,"Ġ175":6321,"Ġ130":6322,"Ġopera":6323,"Ġadmitted":6324,"entially":6325,"Ġec":6326,"Ġinternal":6327,"Ġnomination":6328,"acter":6329,"ĠRem":6330,"bourne":6331,"BN":6332,"Ġ88":6333,"Ġban":6334,"ĠAC":6335,"Ġet":6336,"Ġcrossed":6337,"chers":6338,"Ġproducts":6339,"Ġclimb":6340,"Ġcorner":6341,"va":6342,"ĠLoc":6343,"ĠSingles":6344,"Ġequipped":6345,"Ġ1936":6346,"Ġinstalled":6347,"Ġconcerns":6348,"Ġoverse":6349,"anean":6350,"Ġpreced":6351,"Ġinvited":6352,"Ġconvoy":6353,"Ġinterested":6354,"Ġones":6355,"Ġstarts":6356,"Ġprincipal":6357,"Ġcrime":6358,"wich":6359,"adow":6360,"ĠWell":6361,"ĠConstant":6362,"Ġrecommended":6363,"Ġconqu":6364,"Ġremainder":6365,"ela":6366,"It":6367,"Ġshel":6368,"ĠKong":6369,"Ġmedal":6370,"Ġactual":6371,"Ġmort":6372,"Ġretreat":6373,"ĠUTC":6374,"iller":6375,"Ġshut":6376,"ĠBeach":6377,"ructure":6378,"Ġtell":6379,"Ġautom":6380,"hr":6381,"espread":6382,"BS":6383,"Ġcharged":6384,"Ġacid":6385,"Ġobjects":6386,"ĠInstead":6387,"ĠJustice":6388,"Ġprice":6389,"ĠPlot":6390,"ĠAbout":6391,"Ġfunds":6392,"Ġapart":6393,"ĠCirc":6394,"Ġcomposer":6395,"ĠHere":6396,"Ġsolid":6397,"aug":6398,"Ġ79":6399,"Ġdoor":6400,"ĠVill":6401,"Ġfemales":6402,"Ġconsisting":6403,"Ġstock":6404,"Ġunl":6405,"Ġalt":6406,"Ġpromote":6407,"Ġfly":6408,"ĠProf":6409,"ĠYour":6410,"Ġpage":6411,"met":6412,"ordan":6413,"Ġconsiderable":6414,"Ġvent":6415,"Ġdates":6416,"ilation":6417,"Ġ1961":6418,"Ġmilit":6419,"Ġnest":6420,"ĠJan":6421,"Ġsnow":6422,"ĠVII":6423,"entions":6424,"Ġtypical":6425,"ĠKim":6426,"ĠNic":6427,"ĠForest":6428,"ĠÎ":6429,"Ġgrounds":6430,"Ġ1953":6431,"Ġextension":6432,"Ġduties":6433,"Ġcorrect":6434,"Ġintegr":6435,"erted":6436,"ĠBon":6437,"Ġgall":6438,"ĠJane":6439,"Ġsomeone":6440,"ĠGram":6441,"Ġevolution":6442,"bro":6443,"ĠMoon":6444,"Ġrural":6445,"ĠNBA":6446,"Ġpenal":6447,"ali":6448,"Ġeighth":6449,"vements":6450,"Ġhotel":6451,"ĠNether":6452,"Ġdecades":6453,"Ġimages":6454,"Ġblow":6455,"Ġdriving":6456,"Ġreading":6457,"ĠDougl":6458,"rete":6459,"ĠBir":6460,"Ġidentity":6461,"Ġzone":6462,"ĠAnth":6463,"ko":6464,"after":6465,"ĠFound":6466,"Ġoccurs":6467,"Ġsole":6468,"ĠAdams":6469,"osite":6470,"Ġmanner":6471,"ĠVideo":6472,"ati":6473,"ĠKennedy":6474,"Ġchallenge":6475,"Ġlane":6476,"Ġremix":6477,"Ġskin":6478,"Ġaspects":6479,"Ġpermanent":6480,"ĠTony":6481,"Ġbrigade":6482,"ĠIndones":6483,"elson":6484,"ĠSunday":6485,"Ġdated":6486,"upt":6487,"Ġ1947":6488,"Ġspin":6489,"ĠColl":6490,"ĠEngine":6491,"ĠNorwe":6492,"Ġfrag":6493,"Ġvolcan":6494,"Ġnoting":6495,"ĠDeath":6496,"Ġsubs":6497,"abb":6498,"ĠMaria":6499,"Ġrestaur":6500,"ĠTransport":6501,"Ġsupporters":6502,"ĠHamilton":6503,"Ġslowly":6504,"uro":6505,"Ġposted":6506,"Ġcolour":6507,"hetic":6508,"Ġclean":6509,"ĠDirector":6510,"wick":6511,"Ġdescribing":6512,"Ġ1958":6513,"ĠCop":6514,"ensus":6515,"Ġinvolving":6516,"ĠIndiana":6517,"Ġ84":6518,"veland":6519,"ĠProject":6520,"Ġentering":6521,"osaurus":6522,"ivals":6523,"cknow":6524,"Ġspeak":6525,"Ġvessels":6526,"Ġenemies":6527,"Ġ1910":6528,"ĠMcK":6529,"AT":6530,"Ġham":6531,"Ġequivalent":6532,"Ġdress":6533,"ĠPortug":6534,"Ġclasses":6535,"aware":6536,"Ġdebate":6537,"Ġsettled":6538,"Ġdepartment":6539,"Ġobtained":6540,"ĠAlf":6541,"Ġ1957":6542,"ĠAssembly":6543,"Ġ1937":6544,"Ġaccur":6545,"ĠSimon":6546,"ĠMilitary":6547,"Ġaer":6548,"iley":6549,"ĠIGN":6550,"Ġarmor":6551,"BI":6552,"Ġparliament":6553,"Ġbasic":6554,"ĠAlan":6555,"Ġ93":6556,"risis":6557,"ĠMagazine":6558,"Ġpurchase":6559,"Ġsongwrit":6560,"regon":6561,"ĠId":6562,"agues":6563,"Ġoldest":6564,"Ġpatrol":6565,"Ġ110":6566,"Ġfaith":6567,"ĠProg":6568,"Ġdeparture":6569,"Ġdin":6570,"Ġwidespread":6571,"Ġvir":6572,"Ġconcerned":6573,"ĠScully":6574,"Ġincome":6575,"Ġdecline":6576,"erto":6577,"Ġpup":6578,"Ġattached":6579,"Ġformal":6580,"Ġconnection":6581,"ĠCart":6582,"iterr":6583,"Ġrecognition":6584,"Ġfolk":6585,"Ġcertified":6586,"Ġaccused":6587,"ĠOk":6588,"heastern":6589,"ĠPower":6590,"Ġmemorial":6591,"ĠConstitution":6592,"ĠTurk":6593,"hus":6594,"Ġsequel":6595,"Ġouter":6596,"Ġderived":6597,"ooth":6598,"ĠMountain":6599,"ĠHoward":6600,"ĠWeekly":6601,"cation":6602,"Ġmode":6603,"Ġdeleg":6604,"reck":6605,"hered":6606,"nic":6607,"ĠHou":6608,"ĠAdam":6609,"ĠScience":6610,"Ġwearing":6611,"Ġdecor":6612,"Ġassumed":6613,"ĠHitler":6614,"ĠRose":6615,"ommod":6616,"Ġdisturb":6617,"Ġtele":6618,"orney":6619,"Ġacclaim":6620,"Ġswim":6621,"ĠâĢĿ":6622,"Ġacknow":6623,"Ġhip":6624,"ĠCult":6625,"Ġcommitted":6626,"western":6627,"ĠIllinois":6628,"Ġhosted":6629,"ĠPit":6630,"Ġreturns":6631,"ubb":6632,"ĠArgent":6633,"Ġwarm":6634,"Ġvalley":6635,"Ġsessions":6636,"Ġtorn":6637,"Ġpopulations":6638,"Ġfoss":6639,"Ġdenied":6640,"Ġ1959":6641,"agonist":6642,"ekend":6643,"Ġfine":6644,"Ġsegment":6645,"iterranean":6646,"aki":6647,"Ġchampion":6648,"Ġtemple":6649,"ĠPear":6650,"Ġcharges":6651,"Ġliterary":6652,"icit":6653,"Ġthousands":6654,"ĠFA":6655,"Ġterminus":6656,"Ġtransition":6657,"ĠAst":6658,"Ġsupposed":6659,"Ġregional":6660,"ĠBeatles":6661,"ras":6662,"Ġcong":6663,"alog":6664,"iously":6665,"ĠMediterranean":6666,"Ġwickets":6667,"aret":6668,"eing":6669,"ĠOregon":6670,"ione":6671,"Ġ86":6672,"Ġcanc":6673,"Ġdemand":6674,"ĠEric":6675,"ĠRolling":6676,"ĠSpace":6677,"idges":6678,"Ġ1955":6679,"ĠWWE":6680,"Ġ1954":6681,"Ġshots":6682,"ĠISBN":6683,"ĠLeon":6684,"Ġstrongly":6685,"aired":6686,"ĠNorwegian":6687,"ÅĤ":6688,"Ġcirculation":6689,"ĠPo":6690,"Ġhang":6691,"Ġintelligence":6692,"hedral":6693,"Ġsailed":6694,"mann":6695,"Ġpossibility":6696,"ĠResearch":6697,"udden":6698,"Ġpassengers":6699,"achel":6700,"Ġhope":6701,"Ġgeneration":6702,"Ġanimated":6703,"heme":6704,"ĠStand":6705,"ĠRyan":6706,"ĠCleveland":6707,"organ":6708,"Ġcircum":6709,"uan":6710,"Ġfreedom":6711,"Ġfictional":6712,"Ġthirty":6713,"ĠDouglas":6714,"Ġcommit":6715,"Ġdowntown":6716,"ĠMarc":6717,"emed":6718,"Ġansw":6719,"ĠStanley":6720,"ophy":6721,"ĠBry":6722,"borne":6723,"ĠIra":6724,"Ġbehavior":6725,"Ġminister":6726,"ĠJordan":6727,"fl":6728,"Ġhill":6729,"Ġrich":6730,"ĠGun":6731,"ĠThird":6732,"Ġreplacement":6733,"Ġbegun":6734,"ĠLenn":6735,"Ġcommanded":6736,"ĠHug":6737,"ĠÃĹ":6738,"Ġassistance":6739,"ĠTreat":6740,"Ġmoves":6741,"Ġdestruction":6742,"ĠGill":6743,"Ġcloud":6744,"Ġpoly":6745,"ĠMedia":6746,"Ġmissions":6747,"Ġmissed":6748,"Ġcriminal":6749,"Ġcosts":6750,"ĠChannel":6751,"Ġbrain":6752,"atinum":6753,"Ġexception":6754,"Ġfruit":6755,"Ġhighlight":6756,"Ġbringing":6757,"ez":6758,"Ġtied":6759,"rations":6760,"Ġcrash":6761,"ĠInit":6762,"Ġintention":6763,"bar":6764,"mes":6765,"Ġfeeling":6766,"ĠPier":6767,"ategy":6768,"ipe":6769,"Ġspeaking":6770,"ĠKorea":6771,"ĠCritical":6772,"Ġprotest":6773,"ĠFeder":6774,"Ġfinishing":6775,"Ġunusual":6776,"Ġalleged":6777,"Ġintercept":6778,"ĠFreder":6779,"Ġproperties":6780,"Ġincorporated":6781,"ĠFederal":6782,"rophy":6783,"Ġdemol":6784,"ĠMexican":6785,"ĠAndy":6786,"Ġstayed":6787,"Ġopposite":6788,"Ġattributed":6789,"ĠIv":6790,"Ġvolunte":6791,"Ġrecovered":6792,"Ġbreaking":6793,"Ġemerged":6794,"ĠFame":6795,"Ġserves":6796,"Sp":6797,"Ġsons":6798,"oral":6799,"Ġatmosphere":6800,"ĠSky":6801,"ĠKat":6802,"Ġflo":6803,"elsh":6804,"ĠBristol":6805,"onto":6806,"Ġshop":6807,"Ġ1952":6808,"Ġtheatre":6809,"Ġdriven":6810,"ĠBetween":6811,"Ġoccasionally":6812,"Ġchorus":6813,"ĠPhilip":6814,"wan":6815,"othing":6816,"ĠTenn":6817,"Ġstrateg":6818,"Ġclassic":6819,"Ġready":6820,"iva":6821,"Ġregularly":6822,"Ġdipl":6823,"Ġeffectively":6824,"Ġcavalry":6825,"Ġdang":6826,"Ġestablishment":6827,"Ġprey":6828,"Ġcourts":6829,"Ġspok":6830,"Ġmethods":6831,"riers":6832,"ĠâĢľ":6833,"Ġsounds":6834,"olec":6835,"Ġvary":6836,"Å¡":6837,"ĠFamily":6838,"mb":6839,"ompl":6840,"ĠColor":6841,"ker":6842,"oyd":6843,"Ġmaterials":6844,"Ġcompletion":6845,"Ġstrengthen":6846,"Ġ1933":6847,"Ġshore":6848,"Ġsuperv":6849,"Ġdivers":6850,"Ġresponsibility":6851,"Ġdream":6852,"enses":6853,"ĠRele":6854,"ĠBruce":6855,"ĠSav":6856,"Ġdissip":6857,"Ġattracted":6858,"Ġsurviving":6859,"Ġwarning":6860,"Ġfields":6861,"ĠHawai":6862,"Ġaccommod":6863,"Ġ176":6864,"Ġpersu":6865,"Ġprovince":6866,"Ġheat":6867,"oslav":6868,"aire":6869,"ĠLow":6870,"Ġentertain":6871,"osh":6872,"Ġclassified":6873,"Ġglobal":6874,"Ġdifferences":6875,"Ġdivisions":6876,"Ġtechnical":6877,"Ġinterpret":6878,"ĠPhill":6879,"thm":6880,"sole":6881,"ĠKevin":6882,"lets":6883,"ece":6884,"Ġcruiser":6885,"Ġquant":6886,"Ġpassage":6887,"lig":6888,"isms":6889,"abled":6890,"Ġaboard":6891,"Ġ1935":6892,"Ġclubs":6893,"pet":6894,"Ġstood":6895,"Ġratings":6896,"Ġneither":6897,"Ġassociation":6898,"Ġ83":6899,"Ġeleven":6900,"ĠRain":6901,"Ġmusicians":6902,"Ġrooms":6903,"ĠNorman":6904,"ĠLisa":6905,"ĠBush":6906,"ĠGen":6907,"aza":6908,"Ġreinforce":6909,"ĠSweden":6910,"Ġnone":6911,"Ġdesire":6912,"Ġseparated":6913,"Ġclimate":6914,"Ġcheck":6915,"ja":6916,"Ġ1949":6917,"uty":6918,"Ġshif":6919,"Ġoutbreak":6920,"Ġ92":6921,"nce":6922,"Ġclassification":6923,"weight":6924,"ĠRoger":6925,"ĠAdv":6926,"Ġ1951":6927,"Ġvehicle":6928,"Ġmedic":6929,"Ġancest":6930,"Ġseemed":6931,"ran":6932,"ĠDisc":6933,"Ġreality":6934,"Ġpredecess":6935,"umin":6936,"ĠToday":6937,"night":6938,"ĠUSA":6939,"ĠTar":6940,"ĠLanc":6941,"ĠNations":6942,"Ġvotes":6943,"Ġchemical":6944,"Ġpicture":6945,"oli":6946,"Ġbattleships":6947,"nings":6948,"ĠMorgan":6949,"teenth":6950,"Ġmemory":6951,"Ġhoped":6952,"ĠArsenal":6953,"Ġrequested":6954,"ĠAz":6955,"ĠMorris":6956,"ĠByzantine":6957,"isf":6958,"Ġmovements":6959,"IA":6960,"ĠFive":6961,"ĠCE":6962,"Ġraise":6963,"Ġhistorians":6964,"agle":6965,"ĠMaster":6966,"ĠTelevision":6967,"omot":6968,"ĠWeb":6969,"ĠBudd":6970,"Ġrose":6971,"Ġdifficulty":6972,"Ġbasketball":6973,"Be":6974,"ĠNow":6975,"ĠWelsh":6976,"ĠFinn":6977,"ewhere":6978,"char":6979,"don":6980,"pper":6981,"ĠScient":6982,"Ġcommunities":6983,"ĠPremier":6984,"ĠNetherlands":6985,"Ġrestored":6986,"Ġsam":6987,"Ġille":6988,"ĠBah":6989,"Ġexpect":6990,"Ġremember":6991,"ĠRobinson":6992,"Ġprogramme":6993,"ĠToronto":6994,"ĠTemple":6995,"ĠRow":6996,"Ġteen":6997,"Ġpremiere":6998,"inton":6999,"Ġdelayed":7000,"ĠPur":7001,"burn":7002,"Ġrelative":7003,"Ġdiscovery":7004,"Ġpure":7005,"Ġkid":7006,"Ġinspiration":7007,"Ġotherwise":7008,"Ġgreatly":7009,"Ġsqu":7010,"ĠBol":7011,"pping":7012,"ĠJews":7013,"ĠHo":7014,"Ġanniversary":7015,"Ġvide":7016,"Ġinjuries":7017,"wen":7018,"Ġhol":7019,"ĠNelson":7020,"Ġaccounts":7021,"Ġfunding":7022,"Ġsurrounded":7023,"Ġflank":7024,"Ġspoke":7025,"Ġpraise":7026,"ĠFord":7027,"Ġpenalty":7028,"Ġbatting":7029,"Ġneeds":7030,"ĠFrancis":7031,"Ġdepict":7032,"Ġfal":7033,"ĠGer":7034,"Ġpartner":7035,"Ġmassive":7036,"ami":7037,"Ġweapon":7038,"Ġclaiming":7039,"Ġdens":7040,"Ġ1900":7041,"ca":7042,"Ġdie":7043,"anny":7044,"Ġcrop":7045,"ĠConc":7046,"Ġsuit":7047,"ĠIraq":7048,"ĠJournal":7049,"Ġtries":7050,"Ġforming":7051,"Ġstrategy":7052,"ĠNich":7053,"Ġassemb":7054,"ĠAnton":7055,"Sh":7056,"ĠInt":7057,"RA":7058,"Ġastron":7059,"Ġwrong":7060,"ompson":7061,"ĠAdditionally":7062,"ĠSax":7063,"Ġru":7064,"Ġlegend":7065,"Ġdocumentary":7066,"ĠCas":7067,"ĠPatrick":7068,"ĠHell":7069,"Ġaccompl":7070,"Ġcrosses":7071,"arsh":7072,"ĠIron":7073,"ĠDog":7074,"Ġfled":7075,"Ġworst":7076,"yard":7077,"Ġmo":7078,"Ġstands":7079,"ĠCab":7080,"abil":7081,"Ġarchitecture":7082,"Ġtemporary":7083,"Ġgirls":7084,"Ġtra":7085,"Ġdetermine":7086,"gets":7087,"Ġdismissed":7088,"CA":7089,"Ġgal":7090,"Ġinvolvement":7091,"ĠAllen":7092,"uble":7093,"ĠDean":7094,"ĠRecording":7095,"uther":7096,"Ġrecru":7097,"Ġbombard":7098,"real":7099,"Ġsale":7100,"Ġcategory":7101,"ĠAk":7102,"Ġplane":7103,"formula":7104,"Ġremn":7105,"ban":7106,"ĠBa":7107,"Ġinner":7108,"ici":7109,"ĠTechn":7110,"Ġadaptation":7111,"Ġconvinced":7112,"Ġensure":7113,"ĠAnne":7114,"Ġweekend":7115,"Ġhear":7116,"Ġsight":7117,"Ġlat":7118,"Ġash":7119,"ĠCentre":7120,"Ġresources":7121,"Ġsomewhat":7122,"19":7123,"ĠNFL":7124,"ĠCroatian":7125,"ĠPow":7126,"ĠArmen":7127,"Ġinterests":7128,"ĠJacob":7129,"going":7130,"Ġreserv":7131,"ĠMarine":7132,"ĠProfess":7133,"Ġha":7134,"Ġscheme":7135,"Ġmedieval":7136,"Ġimmediate":7137,"Ġdispl":7138,"Ġshr":7139,"onds":7140,"Ġlibrary":7141,"Ġstreets":7142,"Ġpresidential":7143,"inder":7144,"ĠBishop":7145,"Ġabsor":7146,"ĠMit":7147,"ĠEs":7148,"ĠDesign":7149,"Ġcul":7150,"ĠNar":7151,"Ġconsp":7152,"Ġfalling":7153,"Ġray":7154,"Ġcolonial":7155,"agre":7156,"Ġcarbon":7157,"ĠHoly":7158,"ĠOpen":7159,"Ġtechniques":7160,"Ġfighter":7161,"Ġninth":7162,"ĠPuerto":7163,"ĠOak":7164,"Ġthrone":7165,"Ġstarred":7166,"Ġscrap":7167,"Ġappropri":7168,"Ġclassical":7169,"Ġeggs":7170,"ĠSports":7171,"body":7172,"Ġraces":7173,"Ġacademic":7174,"ige":7175,"ĠDomin":7176,"ĠHeart":7177,"Ġadults":7178,"Ġhal":7179,"oster":7180,"Ġbright":7181,"Ġpassenger":7182,"Ġcommemor":7183,"Ġsurviv":7184,"ĠAgain":7185,"ĠIslam":7186,"Ġloyal":7187,"ĠDE":7188,"Ġow":7189,"Ġphotograph":7190,"Ġori":7191,"Ġmeets":7192,"itzer":7193,"ĠGlob":7194,"Ġlake":7195,"Ġreviewer":7196,"This":7197,"Ġpremiered":7198,"edding":7199,"Ġsubmarine":7200,"ĠPA":7201,"ĠNetwork":7202,"ĠHungarian":7203,"usic":7204,"Ġabsence":7205,"ĠRaj":7206,"Ġseeing":7207,"Ġfitted":7208,"icide":7209,"ĠTrib":7210,"ĠBrother":7211,"Ġrenew":7212,"Ġsuperior":7213,"wealth":7214,"Ġelse":7215,"Ġsed":7216,"Ġalien":7217,"Ġfavorite":7218,"Ġinterior":7219,"Ġengineer":7220,"ĠMatthew":7221,"ĠDig":7222,"osure":7223,"ĠCarter":7224,"ĠRussell":7225,"ronze":7226,"Ġ1913":7227,"Ġpartn":7228,"Ġairport":7229,"Ġic":7230,"Ġdeemed":7231,"Ġattacking":7232,"ĠShortly":7233,"Ġappearing":7234,"ĠLast":7235,"Ġvisible":7236,"Ġconclusion":7237,"tic":7238,"Ġdating":7239,"Ġromantic":7240,"acent":7241,"Ġcharacteristics":7242,"Ġsynthes":7243,"Ġdub":7244,"Ġleads":7245,"Ġ1926":7246,"Ġelections":7247,"ĠNiel":7248,"Ġoperate":7249,"Ġfacility":7250,"ĠWinter":7251,"Ġencouraged":7252,"Ġafterwards":7253,"Ġretirement":7254,"Ġlanded":7255,"bec":7256,"Ġcolony":7257,"Ġtemperatures":7258,"utt":7259,"ĠArn":7260,"Ġconvection":7261,"Ġeveryone":7262,"ĠMarg":7263,"Ġsuffering":7264,"Ġmunicip":7265,"Ġ1927":7266,"ĠLibrary":7267,"Ġcredit":7268,"Ġlegislation":7269,"Ġlies":7270,"ĠHop":7271,"Ġholds":7272,"Ġmodified":7273,"using":7274,"Ġ1921":7275,"Ġrum":7276,"ĠMars":7277,"Ġ06":7278,"Ġpainted":7279,"ĠNC":7280,"Ġdoct":7281,"Ġcontroversial":7282,"ĠFront":7283,"ĠLabor":7284,"Ġwings":7285,"Ġgone":7286,"asure":7287,"ĠKelly":7288,"Ġ1934":7289,"Ġbelieves":7290,"ĠDick":7291,"ossible":7292,"ĠSimilar":7293,"ĠâĤ":7294,"Ġdistributed":7295,"oming":7296,"Ġattempting":7297,"ixon":7298,"rad":7299,"Ġcode":7300,"ĠBang":7301,"urches":7302,"ogen":7303,"roit":7304,"ĠHend":7305,"Ġpin":7306,"Ġstandards":7307,"Ġlooked":7308,"Ġrescue":7309,"Ġauthors":7310,"ivan":7311,"ĠThompson":7312,"Ġsecured":7313,"ĠDor":7314,"Ġdepicted":7315,"ĠGard":7316,"Ġcancer":7317,"Ġmonarch":7318,"Ġdominated":7319,"Ġbattleship":7320,"Despite":7321,"Ġhabitat":7322,"vens":7323,"Ġcontinuing":7324,"Ġanyone":7325,"Ġbuy":7326,"oen":7327,"Ġlongest":7328,"ĠPalace":7329,"Ġjudge":7330,"ester":7331,"apse":7332,"scape":7333,"ĠBerlin":7334,"coming":7335,"ĠDNA":7336,"ĠWright":7337,"pson":7338,"ĠHarris":7339,"Ġbiggest":7340,"Ġ1912":7341,"Ġunsuccessful":7342,"Ġgraphics":7343,"ses":7344,"ito":7345,"emet":7346,"Ġgrass":7347,"Ġchairman":7348,"ĠWhe":7349,"ĠEducation":7350,"anth":7351,"Ġtrained":7352,"Ġarchae":7353,"ĠSn":7354,"ĠPak":7355,"ĠWy":7356,"Ġunion":7357,"ĠCooper":7358,"ĠCommonwealth":7359,"Ġpound":7360,"ugoslav":7361,"Ġsudden":7362,"Ġ900":7363,"Ġwins":7364,"Ġarrangement":7365,"ultane":7366,"ĠUSS":7367,"aser":7368,"Ġcarrier":7369,"ĠEvery":7370,"ĠJam":7371,"Ġneck":7372,"chang":7373,"pon":7374,"ache":7375,"Ġrailroad":7376,"encies":7377,"Ġnickn":7378,"Ġ1932":7379,"Ġjump":7380,"ternal":7381,"Ġacknowled":7382,"igration":7383,"ĠNob":7384,"ĠHouston":7385,"ĠDer":7386,"Ġinformed":7387,"Ġmeasures":7388,"ĠIndians":7389,"inals":7390,"eenth":7391,"ĠFree":7392,"rait":7393,"ĠHospital":7394,"ĠStory":7395,"Ġrepresenting":7396,"Ġsan":7397,"Ġmap":7398,"emetery":7399,"ĠRick":7400,"apping":7401,"Ġreleases":7402,"ĠAdvent":7403,"aska":7404,"atically":7405,"Ġbelt":7406,"ĠAI":7407,"Ġachieve":7408,"ĠSanta":7409,"ĠCommander":7410,"ĠPolice":7411,"ĠCorporation":7412,"har":7413,"eline":7414,"Ġgarrison":7415,"á»":7416,"Ġsees":7417,"Ġformerly":7418,"ĠRAAF":7419,"uster":7420,"ĠBatman":7421,"Ġgrade":7422,"Ġgenerated":7423,"ĠSwedish":7424,"Ġconvention":7425,"book":7426,"Ġcloser":7427,"Ġdeployed":7428,"Ġstyles":7429,"Ġemergency":7430,"Ġbats":7431,"ĠParker":7432,"ture":7433,"otes":7434,"Ã³n":7435,"tenance":7436,"Ġalleg":7437,"Ġquestions":7438,"Ġgets":7439,"Ġtrials":7440,"Ġmoderate":7441,"Ġfestival":7442,"opes":7443,"po":7444,"Ġsiege":7445,"Ġmolec":7446,"Ġinfluential":7447,"Ġhistoric":7448,"rant":7449,"ĠGri":7450,"Ġcycle":7451,"Ġemotional":7452,"ĠTok":7453,"ĠSimpson":7454,"Ġveter":7455,"ĠYugoslav":7456,"fare":7457,"Ġowners":7458,"Ġnovels":7459,"ĠUt":7460,"hire":7461,"Ġsuccessor":7462,"Ġinfluences":7463,"Ġnarrative":7464,"mun":7465,"ĠThus":7466,"yo":7467,"lyn":7468,"olph":7469,"ĠNBC":7470,"ĠYan":7471,"Ġjournalist":7472,"ĠDetroit":7473,"Ġthin":7474,"Ġchildhood":7475,"Ġ1929":7476,"Ġexperiences":7477,"otype":7478,"Ġstead":7479,"Ġexcess":7480,"aws":7481,"Ġconstant":7482,"iography":7483,"Ġdefended":7484,"Ġdiscussed":7485,"Ġeat":7486,"Ġlegs":7487,"Ġapparently":7488,"Ġalco":7489,"ĠGet":7490,"Ġpregn":7491,"owa":7492,"Ġinstruments":7493,"ĠGh":7494,"Ġmathem":7495,"Ġassass":7496,"Ġ08":7497,"Ġ1911":7498,"Ġvictims":7499,"Ġtreated":7500,"ais":7501,"Ġenvironmental":7502,"Ġveget":7503,"ĠMurray":7504,"Ġexecuted":7505,"Ġgiant":7506,"Ġdetail":7507,"ĠSpe":7508,"ĠEle":7509,"Ġcoins":7510,"PA":7511,"ĠEy":7512,"ji":7513,"arked":7514,"Ġdiplom":7515,"Ġster":7516,"Ġoffices":7517,"fire":7518,"ĠRAF":7519,"Ġfactors":7520,"Ġdepos":7521,"Ġ1931":7522,"Ġmine":7523,"ĠCry":7524,"Ġ1922":7525,"imore":7526,"Ġenters":7527,"Ġ140":7528,"Ġhunting":7529,"Ġwooden":7530,"Ġconcur":7531,"rum":7532,"ĠOd":7533,"Ġbear":7534,"ĠBure":7535,"achment":7536,"ĠWarner":7537,"noon":7538,"Ġmaint":7539,"Ġhundreds":7540,"ĠEst":7541,"usted":7542,"ĠAsian":7543,"ĠRoberts":7544,"ĠBelg":7545,"ĠCroatia":7546,"Ġresigned":7547,"Ġride":7548,"ĠCook":7549,"ĠBou":7550,"Ġskills":7551,"Ġchannel":7552,"aste":7553,"Ġuniform":7554,"Ġreveals":7555,"aft":7556,"Ġgay":7557,"lie":7558,"Ġocean":7559,"ĠSocial":7560,"Ġchapter":7561,"Ġpointed":7562,"Ġnavig":7563,"From":7564,"Ġ09":7565,"Ġridge":7566,"Ġspend":7567,"ĠSilver":7568,"Ġenh":7569,"ĠXbox":7570,"Ġwatching":7571,"ĠCategory":7572,"Ġprevented":7573,"stances":7574,"ĠGaga":7575,"ĠObs":7576,"ĠConstruction":7577,"ĠHin":7578,"ĠLyn":7579,"Ġclim":7580,"iliar":7581,"Ġpreferred":7582,"rees":7583,"Ġpushed":7584,"ĠMerc":7585,"ĠMelbourne":7586,"agu":7587,"ĠJesus":7588,"Ġformat":7589,"ĠSpears":7590,"ĠAcc":7591,"Ġlocomot":7592,"Ġfootage":7593,"Ġlanguages":7594,"Ġdifference":7595,"ĠKnight":7596,"Ġhappened":7597,"One":7598,"Ġformally":7599,"Ġthereafter":7600,"Ġopponents":7601,"Ġflew":7602,"Ġdrums":7603,"Ġreportedly":7604,"ĠMort":7605,"Ġfacing":7606,"Ġrelationships":7607,"ĠNielsen":7608,"Ġresign":7609,"elle":7610,"ĠVice":7611,"Ġintense":7612,"Ġthousand":7613,"Ġhanded":7614,"ĠMuslim":7615,"Ġdevice":7616,"Ġnotably":7617,"Ġpull":7618,"Ġanimation":7619,"Ġfiring":7620,"icians":7621,"ogether":7622,"ĠAnthony":7623,"Ġchain":7624,"ĠCarib":7625,"Ġinhabit":7626,"Ġexisted":7627,"Ġvisitors":7628,"ĠPC":7629,"tty":7630,"Ġvision":7631,"text":7632,"ĠCru":7633,"Ġgather":7634,"Ġsurrender":7635,"Ġemployees":7636,"ĠExpress":7637,"ĠTower":7638,"ĠSomers":7639,"ĠPrincess":7640,"orous":7641,"ĠEvans":7642,"Ġaccompany":7643,"Ġbon":7644,"una":7645,"ĠTurkish":7646,"ĠJason":7647,"resent":7648,"Ġdeparted":7649,"Ġlinked":7650,"Ã±":7651,"Ġhearing":7652,"ĠChamber":7653,"Ġexposed":7654,"Ġboil":7655,"Ġparticipate":7656,"Ġpoetry":7657,"ĠModern":7658,"ĠAlbums":7659,"Ġdialogue":7660,"onies":7661,"ĠClinton":7662,"ois":7663,"ĠAtlant":7664,"Ġextent":7665,"ching":7666,"spec":7667,"Ġdetailed":7668,"Ġannounce":7669,"bean":7670,"ĠStewart":7671,"Ġsubstantial":7672,"uv":7673,"Ġ170":7674,"Ġlearning":7675,"ĠGreece":7676,"Ġaudio":7677,"Ġinstance":7678,"Ġuniverse":7679,"Ġrebell":7680,"Ġcruisers":7681,"Ġresidential":7682,"Ġbeach":7683,"ĠAustria":7684,"ĠQueens":7685,"ĠBaltimore":7686,"Ġimpressed":7687,"ropolitan":7688,"ĠPope":7689,"alo":7690,"Ġbes":7691,"Ġperiods":7692,"ĠSamuel":7693,"ĠGilbert":7694,"ĠFI":7695,"endment":7696,"Ġhuge":7697,"prise":7698,"ĠColorado":7699,"iens":7700,"uts":7701,"DS":7702,"orage":7703,"Ġpublisher":7704,"ĠAround":7705,"raph":7706,"ĠTal":7707,"hatt":7708,"Ġtaught":7709,"ĠLev":7710,"ullivan":7711,"Ġeasy":7712,"Ġplate":7713,"ĠFoundation":7714,"aria":7715,"Ġafternoon":7716,"Ġenthus":7717,"Ġutil":7718,"ĠLane":7719,"Ġfil":7720,"stic":7721,"Ġterritories":7722,"Ġdriver":7723,"Ġstem":7724,"Ġtesting":7725,"Ġimprison":7726,"Ġreviewers":7727,"Ġvideos":7728,"itter":7729,"Ġhappy":7730,"ĠLate":7731,"phy":7732,"Ġ05":7733,"Ġtests":7734,"iami":7735,"ĠAuthor":7736,"Ġhat":7737,"Ġupd":7738,"Ġtempor":7739,"Ġunderstand":7740,"Ġisolated":7741,"Ġteeth":7742,"Ġsky":7743,"Ġske":7744,"unes":7745,"Ġstable":7746,"oys":7747,"Ġ1928":7748,"mad":7749,"Ġnegotiations":7750,"ribed":7751,"Ġvessel":7752,"Ġfeud":7753,"Ġdiameter":7754,"ĠLennon":7755,"Ġinher":7756,"Ġagents":7757,"Ġsympt":7758,"Ġliqu":7759,"Ġvul":7760,"Ġreprodu":7761,"Ġpicked":7762,"ĠWithin":7763,"raf":7764,"Ġmart":7765,"umph":7766,"Ġencountered":7767,"Ġbridges":7768,"Ġgoods":7769,"Ġdangerous":7770,"ĠRaw":7771,"ĠChronic":7772,"Ġfactor":7773,"ĠLi":7774,"Ġjunior":7775,"Ġteamm":7776,"Ġ1925":7777,"Ġdiagn":7778,"Ġwithdrew":7779,"Ġaged":7780,"Ġfounder":7781,"Ġsimultane":7782,"ĠGuy":7783,"Ġsleep":7784,"Ġnormally":7785,"Ġupgraded":7786,"Ġreun":7787,"ogan":7788,"ĠRelease":7789,"Ġkeeping":7790,"ĠGiants":7791,"ĠUlt":7792,"Ġspecimens":7793,"Ġbehavi":7794,"orial":7795,"ican":7796,"ĠStock":7797,"Ġpounds":7798,"roke":7799,"ĠHeavy":7800,"Ġmedium":7801,"Ġwindow":7802,"Ġsatell":7803,"icop":7804,"Ġlob":7805,"Ġfrequent":7806,"oto":7807,"Ġsure":7808,"Ġpartly":7809,"Ġrelie":7810,"Ġ1890":7811,"Ġtie":7812,"etime":7813,"ĠArk":7814,"Ġlowest":7815,"Ġcollaps":7816,"Ġethnic":7817,"Ġcrisis":7818,"ĠChampionships":7819,"ĠHorse":7820,"mission":7821,"Ġresear":7822,"Ġengineering":7823,"rim":7824,"Ġtoll":7825,"ĠMalays":7826,"ĠReal":7827,"Ġx":7828,"Ġapprec":7829,"Ġtraveled":7830,"ĠWrestling":7831,"Ġ1924":7832,"ĠAnglo":7833,"Ġorganizations":7834,"Ġwhereas":7835,"ĠMiami":7836,"Ġproced":7837,"Ġprohib":7838,"ĠMun":7839,"Ġdesigner":7840,"Ġrarely":7841,"Ġlose":7842,"Ġrefers":7843,"lock":7844,"Ġdiet":7845,"ĠDesc":7846,"sea":7847,"amese":7848,"ĠTrack":7849,"ĠOrgan":7850,"Ġdoesn":7851,"Ġturrets":7852,"Ġtone":7853,"Ġtechnique":7854,"Ġoutf":7855,"ĠSarah":7856,"Ġdeter":7857,"ĠHorn":7858,"Ġmir":7859,"Ġspending":7860,"ĠBenn":7861,"Ġfinale":7862,"Ġcriticised":7863,"ĠPlayer":7864,"ĠSomerset":7865,"Ġvice":7866,"Ġadvice":7867,"borough":7868,"zy":7869,"Ġvic":7870,"Ġpermission":7871,"usal":7872,"rik":7873,"Ġmaintenance":7874,"Ġinsc":7875,"ĠTrek":7876,"nest":7877,"ĠFrederick":7878,"Ġplatinum":7879,"roc":7880,"Ġdifficulties":7881,"Ġuncertain":7882,"Ġpartially":7883,"Ġunderw":7884,"Ġpolicies":7885,"abama":7886,"ennis":7887,"Ġbypass":7888,"Ġrestric":7889,"Ġagree":7890,"ĠUnlike":7891,"Ġverse":7892,"Ġfur":7893,"Ġcomplic":7894,"Ġmainstream":7895,"Ġcompete":7896,"ĠBird":7897,"ĠEdd":7898,"Ġindicate":7899,"ĠTreaty":7900,"Ġpersonality":7901,"Ġranking":7902,"iece":7903,"Ġca":7904,"Ġrecordings":7905,"olas":7906,"uscript":7907,"Ġcomments":7908,"Ġexcell":7909,"ĠWing":7910,"Ġproport":7911,"Ġpersp":7912,"ĠMarshall":7913,"inction":7914,"Ġremove":7915,"ĠForces":7916,"Ġfinals":7917,"Ġrefuge":7918,"helm":7919,"ĠCaribbean":7920,"ĠNevertheless":7921,"Ġanticip":7922,"ĠBab":7923,"igen":7924,"ĠMario":7925,"ologists":7926,"Ġconcerts":7927,"Ġax":7928,"Ġchronic":7929,"Ġsafe":7930,"igs":7931,"ygen":7932,"ilst":7933,"Ġseats":7934,"Ġwindows":7935,"ĠBed":7936,"ĠSeattle":7937,"gery":7938,"urance":7939,"Ġunn":7940,"oked":7941,"Ġrestrict":7942,"Ġextreme":7943,"Ġfalls":7944,"Ġrates":7945,"attered":7946,"Ġrecommend":7947,"Ġfighters":7948,"ĠKnow":7949,"Ġstrip":7950,"Ġhonour":7951,"Ġpitched":7952,"Ġrepair":7953,"Ġ1923":7954,"Ġcovers":7955,"ĠCz":7956,"rior":7957,"Ġrecur":7958,"Ġrepresentative":7959,"iy":7960,"rain":7961,"ĠLim":7962,"Ġsymp":7963,"ĠCanal":7964,"Ġdivor":7965,"ĠYanke":7966,"ĠHans":7967,"Ġjur":7968,"Ġmonument":7969,"Ġmoral":7970,"Ġtenth":7971,"Ġmamm":7972,"Ġalter":7973,"aya":7974,"Ġtruth":7975,"Ġprompted":7976,"Ġphen":7977,"Ġforcing":7978,"Ġdescribe":7979,"Ġphr":7980,"Ġbrand":7981,"Ġhockey":7982,"ĠTs":7983,"Ġtot":7984,"ĠAud":7985,"ĠIowa":7986,"ĠThor":7987,"away":7988,"Ġdestroyers":7989,"chell":7990,"Ġminimum":7991,"ĠMississ":7992,"Ġshear":7993,"ĠCrown":7994,"All":7995,"Ġreconst":7996,"ĠBuck":7997,"Ġchurches":7998,"Ġneighborhood":7999,"Ġdiff":8000,"Ġfriendly":8001,"Ġhull":8002,"Ġovers":8003,"Ġexamples":8004,"Ġbases":8005,"Ġboys":8006,"ĠTownship":8007,"30":8008,"ĠAnna":8009,"Ġdrawing":8010,"ĠBros":8011,"iac":8012,"power":8013,"ĠJess":8014,"Ġtravelled":8015,"ĠGarden":8016,"Ġbombers":8017,"Ġpric":8018,"Ġtub":8019,"Ġdynasty":8020,"ĠAlabama":8021,"Ġdoctor":8022,"Ġadjacent":8023,"xual":8024,"Ġinaug":8025,"Ġapproval":8026,"ĠMinistry":8027,"Ġhousing":8028,"Ġdisplayed":8029,"isd":8030,"ĠHungary":8031,"ls":8032,"rot":8033,"Ġ07":8034,"Ġcredits":8035,"Ġcreator":8036,"ĠUSD":8037,"ĠSenator":8038,"ĠOt":8039,"ohn":8040,"Ġgrown":8041,"ĠAustralians":8042,"Ġjoining":8043,"Ġlisting":8044,"Ġcollapse":8045,"Ġtribute":8046,"ĠLawrence":8047,"Ġpartnership":8048,"olis":8049,"ĠGrammy":8050,"FC":8051,"ĠMinnes":8052,"Ġprotagonist":8053,"ĠBuff":8054,"ĠDiego":8055,"ĠNazi":8056,"ĠML":8057,"Ġmoments":8058,"Ġacted":8059,"Ġchanging":8060,"anz":8061,"Ġdesignation":8062,"Ġcreative":8063,"Ġexplo":8064,"Ġcopy":8065,"Ġpowered":8066,"alions":8067,"ĠCountry":8068,"ugby":8069,"Ġasks":8070,"Ġfung":8071,"ĠHamp":8072,"Ġrefere":8073,"onnaissance":8074,"ES":8075,"Ġgrav":8076,"anium":8077,"ĠHuman":8078,"Ġtrend":8079,"Ġstorms":8080,"Ġradar":8081,"Ġvillages":8082,"Ġinstrumental":8083,"ĠNapole":8084,"Ġturb":8085,"ĠDave":8086,"Ġappointment":8087,"Ġarts":8088,"Ġdollars":8089,"ĠBelgium":8090,"ĠSab":8091,"Ġorb":8092,"Ġtreaty":8093,"ĠDance":8094,"Ġadvis":8095,"Ġpossession":8096,"Ġscientists":8097,"Ġ1905":8098,"icy":8099,"velt":8100,"Ġcanal":8101,"col":8102,"jamin":8103,"Ġrounds":8104,"Ġvictories":8105,"Ġsurvive":8106,"Ġeliminated":8107,"Ġpaintings":8108,"Ġcovering":8109,"Ġmand":8110,"MA":8111,"ĠMP":8112,"imeter":8113,"ounced":8114,"ĠHealth":8115,"ĠGuardian":8116,"Ġtruck":8117,"Ġminimal":8118,"Ġ1908":8119,"ĠCharlie":8120,"Ġorbit":8121,"Ġju":8122,"Ġels":8123,"Ġtelling":8124,"uda":8125,"Ġprecip":8126,"Ġelsewhere":8127,"Ġ1909":8128,"Ġnewspapers":8129,"Ġsurprise":8130,"Ġbenefit":8131,"Ġinnov":8132,"ĠLegacy":8133,"Ġseeking":8134,"Ġarriving":8135,"Ġhelping":8136,"ĠMedal":8137,"icts":8138,"ĠHockey":8139,"Ġoccupation":8140,"ĠVietnamese":8141,"mers":8142,"ĠCR":8143,"Ġsuicide":8144,"Ġwheel":8145,"Ġpurposes":8146,"Ġrhythm":8147,"ivated":8148,"Ġvalues":8149,"Ġdispute":8150,"otten":8151,"ods":8152,"Ġoccasions":8153,"Ġped":8154,"Ġunlike":8155,"ogy":8156,"Ġsmooth":8157,"Ġloan":8158,"ĠCre":8159,"ecraft":8160,"Ġtwin":8161,"Ġoption":8162,"itud":8163,"Ġpool":8164,"rupted":8165,"Ġgard":8166,"ĠHills":8167,"ĠAlong":8168,"active":8169,"Ġmanuscript":8170,"hattan":8171,"Ġfishing":8172,"Ġstruggle":8173,"Ġmarry":8174,"atus":8175,"Ġbrick":8176,"Ġsoil":8177,"ĠMcD":8178,"ĠShakesp":8179,"ĠRoc":8180,"ĠBlood":8181,"Ġmurd":8182,"idi":8183,"forced":8184,"Ġwet":8185,"osevelt":8186,"ouri":8187,"Ġbalance":8188,"ĠMach":8189,"Ġdegrees":8190,"ĠBanks":8191,"ĠCall":8192,"Ġgat":8193,"Ġpreserved":8194,"chen":8195,"Ġschedule":8196,"ographical":8197,"ĠHud":8198,"ĠChildren":8199,"ĠHand":8200,"ĠRepresent":8201,"ĠCold":8202,"ĠDC":8203,"ĠPeninsula":8204,"Ġpublicly":8205,"Ġcateg":8206,"ĠExt":8207,"atherine":8208,"Ġcryst":8209,"Ġ1907":8210,"Ġviolent":8211,"Ġresumed":8212,"Ġcooper":8213,"Ġcandidates":8214,"iders":8215,"Ġflash":8216,"Ġemperor":8217,"Ġneighbour":8218,"Ġwedding":8219,"ĠDead":8220,"Ġcompeted":8221,"Ġpilots":8222,"ĠTrust":8223,"Ġsurvivors":8224,"ĠRa":8225,"ĠManhattan":8226,"ĠMinnesota":8227,"roid":8228,"munition":8229,"Ġabilities":8230,"Ġ125":8231,"sters":8232,"rows":8233,"inally":8234,"Ġ105":8235,"Ġdies":8236,"Ġprocl":8237,"Ġneutral":8238,"overs":8239,"Ġ164":8240,"Ġdiscip":8241,"ĠAdminist":8242,"Ġbeautiful":8243,"incial":8244,"Ġintensified":8245,"Ġspan":8246,"Ġimpossible":8247,"Ġalignment":8248,"entional":8249,"Ġteaching":8250,"Re":8251,"acle":8252,"Ġcoordin":8253,"Ġassisted":8254,"ĠThen":8255,"Ġdefeating":8256,"ĠKhan":8257,"Ġcook":8258,"ĠIan":8259,"Ġargument":8260,"Ġwrest":8261,"Ġadvoc":8262,"Ġpoison":8263,"Ġmulti":8264,"Ġconcrete":8265,"Ġcustom":8266,"Ġelectronic":8267,"Ġlists":8268,"Ġnations":8269,"Ġconsult":8270,"Ġhelicop":8271,"Ġgrey":8272,"ĠDur":8273,"oking":8274,"ĠIndustry":8275,"Ġprosp":8276,"ĠKansas":8277,"ĠRoosevelt":8278,"enh":8279,"Ġrivers":8280,"Ġserial":8281,"Ġassists":8282,"Ġlem":8283,"Ġopponent":8284,"Ġabsol":8285,"ĠLl":8286,"Ġinteresting":8287,"Ġfoundation":8288,"Ġagricultural":8289,"ĠAlfred":8290,"Ġelabor":8291,"Ġbusinesses":8292,"ĠFranklin":8293,"ĠHotel":8294,"ensions":8295,"Ġsuitable":8296,"Ġbacking":8297,"Ġsimpl":8298,"mith":8299,"rome":8300,"Ġsigning":8301,"Ġovert":8302,"ĠCamer":8303,"Ġsubmitted":8304,"Ġ1880":8305,"Ġdanc":8306,"ilty":8307,"Ġtunnel":8308,"bra":8309,"eare":8310,"Ġmines":8311,"Ġfifteen":8312,"Ġunderstanding":8313,"ĠMississipp":8314,"ĠOp":8315,"ĠPolit":8316,"ĠBenjamin":8317,"Ġscholar":8318,"Ġencounter":8319,"Ġoxygen":8320,"obile":8321,"Ġsymptoms":8322,"Ġciting":8323,"Ġwaves":8324,"Ġbehalf":8325,"ĠHind":8326,"Ġ165":8327,"Ġsunk":8328,"itated":8329,"Ġpercentage":8330,"ĠSatur":8331,"ĠChristopher":8332,"mph":8333,"ulating":8334,"Ġforests":8335,"ĠNat":8336,"Ġparish":8337,"To":8338,"eu":8339,"Ġsituated":8340,"ĠLaure":8341,"Ġspiritual":8342,"Ġninet":8343,"Ġforty":8344,"odore":8345,"Ġsigns":8346,"ĠPortland":8347,"ĠRand":8348,"Ġclosing":8349,"Ġsank":8350,"Ġsubjects":8351,"ĠArea":8352,"ila":8353,"isp":8354,"Ġammunition":8355,"Ġvoiced":8356,"Ġusual":8357,"ĠLin":8358,"Ġillness":8359,"Ġrepairs":8360,"onymous":8361,"Ġresolution":8362,"li":8363,"ĠBull":8364,"rix":8365,"ĠAR":8366,"ĠBlues":8367,"ĠAh":8368,"ctic":8369,"ĠFlight":8370,"ĠWalker":8371,"ĠKurt":8372,"ĠTun":8373,"essee":8374,"Ġasking":8375,"Ġdisaster":8376,"Ġfunctions":8377,"ĠBuilding":8378,"Ġimperial":8379,"ĠShel":8380,"Ġcorpor":8381,"ĠÃĨ":8382,"Ġattendance":8383,"Ġcollaboration":8384,"ĠThroughout":8385,"ĠHindu":8386,"ante":8387,"ĠAff":8388,"Ġassess":8389,"Ġlieutenant":8390,"Ġrestaurant":8391,"alities":8392,"ĠHong":8393,"Ġaudiences":8394,"aron":8395,"ĠEvent":8396,"Ġevil":8397,"Ġ04":8398,"Ġcontroll":8399,"Ġfeelings":8400,"Ġunderground":8401,"ĠMichel":8402,"ĠInterstate":8403,"rams":8404,"Ġworship":8405,"Ġjunction":8406,"Ġdeliber":8407,"Ġflights":8408,"father":8409,"Ġnom":8410,"Ġaffairs":8411,"Ġsuspended":8412,"Since":8413,"ĠDiv":8414,"Ġskull":8415,"ĠHero":8416,"ĠLith":8417,"Ġexit":8418,"ĠAthlet":8419,"ĠIce":8420,"Ġwilling":8421,"icer":8422,"Ġtargets":8423,"Ġearthqu":8424,"ĠBeck":8425,"Ġcargo":8426,"ĠAnim":8427,"Ġrecre":8428,"ĠCole":8429,"Ġfuneral":8430,"ean":8431,"Ġ1906":8432,"Ġaffair":8433,"Ġkne":8434,"ĠRang":8435,"asters":8436,"Ġoperational":8437,"ĠAlexand":8438,"Ġpoorly":8439,"Ġabol":8440,"Ġmeasured":8441,"ĠWard":8442,"ĠFal":8443,"ĠNash":8444,"odge":8445,"Ġcompilation":8446,"Ġdocuments":8447,"ĠShakespeare":8448,"iveness":8449,"Ġfiled":8450,"Ġmountains":8451,"Ġaimed":8452,"Ġpron":8453,"uable":8454,"Ġregistered":8455,"ĠVI":8456,"Ġcircuit":8457,"Ġ360":8458,"ĠLouisiana":8459,"ĠEgyptian":8460,"ĠRace":8461,"Ġ1904":8462,"sex":8463,"Ġlect":8464,"orders":8465,"Ġstring":8466,"Ġiniti":8467,"Ġstatue":8468,"Ġfavorable":8469,"ĠPle":8470,"ĠNative":8471,"Ġelder":8472,"ĠPhilippines":8473,"ĠTennessee":8474,"ĠLam":8475,"Ġliked":8476,"Ġanch":8477,"Ġ1870":8478,"ĠKings":8479,"Ġrecognised":8480,"Ġexplosion":8481,"ĠMississippi":8482,"ĠSon":8483,"ĠBan":8484,"Ġadopt":8485,"ĠHistoric":8486,"Ġprol":8487,"Ġprofessor":8488,"ĠCampbell":8489,"Ġtemporarily":8490,"Ġrepresents":8491,"Ġentertainment":8492,"Un":8493,"ĠFriend":8494,"lah":8495,"Ġsector":8496,"ĠDepression":8497,"ĠPalest":8498,"ĠWriting":8499,"ishment":8500,"Ġrout":8501,"ĠWolf":8502,"Ġreplacing":8503,"Ġsequences":8504,"ĠMontreal":8505,"ĠLabour":8506,"rator":8507,"ipped":8508,"Ġ01":8509,"Ġfifty":8510,"jo":8511,"Ġjazz":8512,"ĠRap":8513,"amps":8514,"Ġwreck":8515,"Ġoffering":8516,"Ġshells":8517,"ĠSullivan":8518,"Ġartwork":8519,"Ġwore":8520,"inea":8521,"Ġresidence":8522,"overe":8523,"Ġmargin":8524,"Ġinterpre":8525,"ception":8526,"Ġpreparation":8527,"ĠTag":8528,"ĠBrun":8529,"amic":8530,"ifer":8531,"ateur":8532,"species":8533,"eton":8534,"weet":8535,"Ġreflected":8536,"Ġwel":8537,"Ġalliance":8538,"Ġreluct":8539,"Ġdirectors":8540,"Ġrestoration":8541,"Ġprime":8542,"ĠBox":8543,"Ġexpensive":8544,"Ġ*":8545,"ĠHu":8546,"Ġbot":8547,"ĠMissouri":8548,"ĠFried":8549,"Ġcyl":8550,"ĠVinc":8551,"ĠComb":8552,"Ġterror":8553,"Ġtouring":8554,"Ġoverw":8555,"issions":8556,"ĠCob":8557,"Ġcompleting":8558,"Ġamongst":8559,"Ġthinking":8560,"ĠReturn":8561,"Ġalcohol":8562,"zz":8563,"Ġsuggesting":8564,"ĠHalo":8565,"Ġpy":8566,"ĠWol":8567,"ĠDw":8568,"Ġbanks":8569,"Ġnucle":8570,"Ġcancelled":8571,"artney":8572,"ancell":8573,"ylan":8574,"Ġhorror":8575,"inental":8576,"Ġrebuilt":8577,"bishop":8578,"ĠLad":8579,"Ġcoverage":8580,"atics":8581,"Ġrig":8582,"ĠIndependent":8583,"ques":8584,"arth":8585,"ĠDest":8586,"ĠStevens":8587,"Ġpulled":8588,"andal":8589,"Ġdecides":8590,"Ġescaped":8591,"ĠPerform":8592,"ĠLucas":8593,"dale":8594,"Ġwasn":8595,"Ġamounts":8596,"ĠMargaret":8597,"Ġerupt":8598,"agen":8599,"Ġreven":8600,"Ġdimens":8601,"ĠSteven":8602,"Ġlacked":8603,"ellect":8604,"idel":8605,"Ġtribes":8606,"uary":8607,"Ġcous":8608,"Ġracing":8609,"ĠGuide":8610,"Ġdramatic":8611,"ĠApple":8612,"Ġbay":8613,"Ġsubt":8614,"Ġclearly":8615,"Ġcommunication":8616,"Ġpatterns":8617,"zona":8618,"Ã§":8619,"Ġgarden":8620,"Ġpredomin":8621,"overeign":8622,"Ġfamiliar":8623,"Ġengagement":8624,"Ġownership":8625,"Ġargues":8626,"ĠFiles":8627,"ĠCuba":8628,"Ġmarks":8629,"Ġfrig":8630,"SP":8631,"quir":8632,"face":8633,"Ġsaved":8634,"Ġarmored":8635,"Ġben":8636,"Ġperspective":8637,"ĠGab":8638,"Ġcolonies":8639,"ĠIndies":8640,"Ġdrove":8641,"Ġcontributions":8642,"rm":8643,"Ġwicket":8644,"Ġcod":8645,"Ġsolution":8646,"urally":8647,"Ġmerchant":8648,"Ġfastest":8649,"Ġtru":8650,"ĠPersian":8651,"Ġplayoffs":8652,"ĠWarren":8653,"Ġartistic":8654,"Ġadministrative":8655,"rage":8656,"Ġremnants":8657,"unch":8658,"ĠMitchell":8659,"Ġprint":8660,"Ġcharacterized":8661,"ĠArizona":8662,"Ġfalse":8663,"ĠCzech":8664,"idency":8665,"Ġrit":8666,"ieties":8667,"Ġboundary":8668,"Ġexecut":8669,"ĠGraham":8670,"Ġrising":8671,"ĠTamil":8672,"sky":8673,"Ġseed":8674,"Ġseverely":8675,"Some":8676,"TA":8677,"Ġkings":8678,"Ġcrews":8679,"Ġinstitutions":8680,"Ġmilitia":8681,"orious":8682,"okes":8683,"Ġarmament":8684,"Ġbadly":8685,"Ġtag":8686,"erk":8687,"rep":8688,"Ġdisappoin":8689,"Ġdepending":8690,"orph":8691,"ĠMes":8692,"ĠDal":8693,"Ġretail":8694,"Ġflagship":8695,"ĠMack":8696,"Ġobv":8697,"Ġbulk":8698,"ĠNag":8699,"Ġearning":8700,"Ġgenetic":8701,"Ġdistinctive":8702,"ĠKirk":8703,"Ġbowling":8704,"Ġgang":8705,"Ġexplains":8706,"no":8707,"ĠBureau":8708,"ĠMcL":8709,"Ġbronze":8710,"Ġrecip":8711,"Ġranks":8712,"Ġrestricted":8713,"arr":8714,"Ġfallen":8715,"Ġfrust":8716,"Ġcomparison":8717,"Ġthrew":8718,"Ġnotice":8719,"Ġrecon":8720,"Ġideal":8721,"Ġ03":8722,"Ġexcav":8723,"orer":8724,"Ġdemonstrated":8725,"Ġranging":8726,"ĠInitially":8727,"Ġexplain":8728,"Ġcondem":8729,"Ġpoems":8730,"ĠPhoen":8731,"ĠConfederate":8732,"ĠSaturday":8733,"nik":8734,"Ġinland":8735,"Ġcontrols":8736,"Ġinhabitants":8737,"unc":8738,"Ġcontext":8739,"Ġdraf":8740,"Ġriders":8741,"storm":8742,"Ġarrive":8743,"ĠEdge":8744,"ĠScout":8745,"cru":8746,"ectic":8747,"mented":8748,"Ġpractices":8749,"Ġsisters":8750,"Ġwants":8751,"ĠMess":8752,"uations":8753,"Ġmental":8754,"omber":8755,"ĠBilly":8756,"ĠGrey":8757,"ĠkW":8758,"Ġ115":8759,"Ġquiet":8760,"ĠJoh":8761,"Ġsatisf":8762,"rating":8763,"olid":8764,"Ġconservative":8765,"ĠDragon":8766,"Ġloop":8767,"itzerland":8768,"Ġelectron":8769,"Ġwider":8770,"Ġfaster":8771,"Ġmaneu":8772,"gate":8773,"Ġshield":8774,"Ġgap":8775,"Ġexclud":8776,"ĠSony":8777,"ĠKu":8778,"formation":8779,"Ġsurge":8780,"Ġautob":8781,"Ġspotted":8782,"ridge":8783,"Ġreaches":8784,"Ġrevol":8785,"exp":8786,"Ġdistinguished":8787,"Ġpace":8788,"uki":8789,"equ":8790,"Ġplus":8791,"ĠCow":8792,"ĠDom":8793,"Ġevolved":8794,"Ġnorthward":8795,"ĠHarvey":8796,"Ġvulner":8797,"anches":8798,"ivia":8799,"Ġacceler":8800,"Ġ174":8801,"cho":8802,"Ġmeat":8803,"life":8804,"itting":8805,"Ġapplication":8806,"ĠBroadway":8807,"ĠMaur":8808,"CC":8809,"Ġsynd":8810,"lahoma":8811,"Ġkit":8812,"Ġexhibition":8813,"Ġmillimet":8814,"Ġquarterback":8815,"athy":8816,"Ġ1901":8817,"Ġnominations":8818,"Ġagency":8819,"ĠÅ":8820,"Ġgate":8821,"ĠEP":8822,"Ġsubspecies":8823,"Ġprotein":8824,"ĠRing":8825,"Ġsatellite":8826,"ocking":8827,"Ġmicro":8828,"Ġdominant":8829,"Ġprepare":8830,"Ġhouseholds":8831,"Ġpredicted":8832,"ruption":8833,"Ġpalace":8834,"ta":8835,"Ġtriple":8836,"Ġframe":8837,"ĠFederation":8838,"otton":8839,"Ġstorage":8840,"Ġslaves":8841,"ĠPrior":8842,"ĠMicro":8843,"ĠBusiness":8844,"ĠSnow":8845,"sequently":8846,"Ġobtain":8847,"ĠWilhelm":8848,"Ġtex":8849,"estone":8850,"Ġ1903":8851,"ĠSwitzerland":8852,"John":8853,"Ġabund":8854,"ĠAustrian":8855,"ĠMagn":8856,"Ġprinted":8857,"Ġarticles":8858,"Ġattained":8859,"Ġcarriers":8860,"Ġ1902":8861,"Ġrepeatedly":8862,"Ġintellect":8863,"Ġpredecessor":8864,"inations":8865,"Ġallies":8866,"Ġfixed":8867,"ĠProgram":8868,"ĠHem":8869,"Ġstores":8870,"Ġspr":8871,"oga":8872,"ĠMarie":8873,"ĠDigital":8874,"Ġvertical":8875,"Ġsurgery":8876,"acked":8877,"Ġvs":8878,"Ġpeaking":8879,"Ġvast":8880,"ĠABC":8881,"Ġphilosophy":8882,"Ġvel":8883,"ĠYe":8884,"ori":8885,"Ġstrict":8886,"Ġsignal":8887,"Ġbiographer":8888,"Ġadventure":8889,"ĠLov":8890,"Ġ155":8891,"Ġblocks":8892,"Ġexcellent":8893,"urer":8894,"Ġyield":8895,"rine":8896,"urd":8897,"Ġdisagre":8898,"Ġboss":8899,"ĠDylan":8900,"anton":8901,"ĠMrs":8902,"azing":8903,"Ġillegal":8904,"Ġphenomen":8905,"asts":8906,"ĠVis":8907,"Ġperceived":8908,"ĠRen":8909,"Ġbombs":8910,"Ġseriously":8911,"Ġchoose":8912,"bl":8913,"rates":8914,"ĠÄ":8915,"anian":8916,"ĠProm":8917,"ĠSin":8918,"Ġpretty":8919,"Ġremarked":8920,"Ġwestward":8921,"Ġapartment":8922,"agasc":8923,"oven":8924,"Ġwaiting":8925,"ĠLiz":8926,"Ġcomfort":8927,"Ġ101":8928,"Ġuseful":8929,"Ã©e":8930,"ĠRico":8931,"Ġcircumstances":8932,"kes":8933,"Ġthor":8934,"aughters":8935,"Ġcurren":8936,"riptions":8937,"Ġsurrend":8938,"lings":8939,"Ġmeetings":8940,"ihanna":8941,"Ġdrugs":8942,"Ġbattalions":8943,"ĠJosh":8944,"Ġcoinc":8945,"Ġsket":8946,"Ġdollar":8947,"ĠOklahoma":8948,"Ġtight":8949,"ĠRidge":8950,"Ġlayer":8951,"ĠEconom":8952,"Ġcivilian":8953,"itage":8954,"ĠSoon":8955,"Ġreaders":8956,"Ġarmour":8957,"acon":8958,"Ġwhilst":8959,"sk":8960,"Ġsick":8961,"imen":8962,"Ġphone":8963,"ĠMurphy":8964,"bre":8965,"ĠBaby":8966,"Ġmatters":8967,"Ġinstitution":8968,"rus":8969,"Ġbreat":8970,"Ġcasting":8971,"Ġfriendship":8972,"Ġstrengthened":8973,"rov":8974,"Ġvisiting":8975,"ĠDenmark":8976,"Ġtiss":8977,"Ġgust":8978,"ĠChand":8979,"Ġplanets":8980,"ĠSmall":8981,"ĠOriginal":8982,"ĠCher":8983,"Ġreconnaissance":8984,"ĠSeven":8985,"fish":8986,"pha":8987,"Ġsimilarly":8988,"Ġchamber":8989,"ĠUE":8990,"Ġretain":8991,"Ġsimultaneously":8992,"icate":8993,"ĠNon":8994,"ĠKal":8995,"ski":8996,"apolis":8997,"Ġlegacy":8998,"ĠAbbey":8999,"Ġalternate":9000,"Ġdemanded":9001,"Ġtyphoon":9002,"rose":9003,"mingham":9004,"ĠTokyo":9005,"arant":9006,"ĠRecord":9007,"adi":9008,"ĠCampaign":9009,"ĠTerrit":9010,"ĠHarv":9011,"Ġpanel":9012,"Ġjustice":9013,"ĠPed":9014,"Ġempt":9015,"Ġenlisted":9016,"Ġalive":9017,"Ġ168":9018,"Ġinsisted":9019,"ĠAtlanta":9020,"rast":9021,"onomy":9022,"ĠMik":9023,"Ġshipping":9024,"avery":9025,"Ġhorn":9026,"ĠBarry":9027,"vis":9028,"Ġrevers":9029,"ĠPerry":9030,"Ġrevenue":9031,"Ġroots":9032,"Ġpromised":9033,"Ġdemands":9034,"Ġbombing":9035,"ĠDelaware":9036,"estyle":9037,"Ġtack":9038,"ĠBaseball":9039,"lus":9040,"Ġpunk":9041,"Ġpossess":9042,"ĠPrize":9043,"Ġlanes":9044,"Ġpersonally":9045,"ĠRailroad":9046,"Ġathletes":9047,"gro":9048,"pan":9049,"Ġhook":9050,"Ġconsole":9051,"Ġdrivers":9052,"Ġstruggled":9053,"Ġdefinition":9054,"entle":9055,"Ġmainland":9056,"Ġlooks":9057,"ĠLeslie":9058,"ĠFem":9059,"abs":9060,"Ġportions":9061,"Ġconscious":9062,"aration":9063,"Ġpione":9064,"Ġorchestra":9065,"ĠDS":9066,"uma":9067,"Ġbacked":9068,"Ġaudition":9069,"ĠAmy":9070,"Ġsung":9071,"Ġpropag":9072,"TW":9073,"Ġcontinu":9074,"Ġdemocr":9075,"ĠPitts":9076,"Ġbehaviour":9077,"Ġguitarist":9078,"Ġdiver":9079,"agg":9080,"ĠInternet":9081,"Ġjobs":9082,"Ġartific":9083,"Ġmarketing":9084,"ĠYankees":9085,"ĠSuch":9086,"Ġarmies":9087,"din":9088,"inian":9089,"roph":9090,"ĠRihanna":9091,"Ġguilty":9092,"Ġdemolished":9093,"Ġoblig":9094,"ardo":9095,"regation":9096,"Ġdancing":9097,"Ġsurpass":9098,"Ġstarring":9099,"iph":9100,"ĠMadagasc":9101,"Ġruling":9102,"ĠBomb":9103,"Ġfeels":9104,"lain":9105,"Ġincreases":9106,"Ġprofile":9107,"Ġfactory":9108,"acre":9109,"odox":9110,"Ġsubst":9111,"Ġheading":9112,"Ġcompens":9113,"Ġmining":9114,"annon":9115,"Ġcounties":9116,"Ġtheater":9117,"Ġindu":9118,"azines":9119,"Ne":9120,"Ġpages":9121,"Ġrub":9122,"Äģ":9123,"ĠMother":9124,"ĠRoll":9125,"ghan":9126,"Ġbelieving":9127,"Ġorganisation":9128,"Ġessential":9129,"ĠJuan":9130,"Ġdiscovers":9131,"Ġpursue":9132,"inding":9133,"Ġexpression":9134,"Ġdiscont":9135,"Ġbonus":9136,"Ġaffect":9137,"Ġdelivery":9138,"tery":9139,"ĠNik":9140,"Ġclothing":9141,"Ġ02":9142,"Ġmultipl":9143,"Ġobst":9144,"Ġ166":9145,"Ġsucceed":9146,"Ġsharp":9147,"ĠJohnny":9148,"Ġports":9149,"where":9150,"eland":9151,"ĠClar":9152,"cott":9153,"ĠEdwards":9154,"Ġmobile":9155,"ĠBh":9156,"ĠNixon":9157,"Ġcrest":9158,"Ġelevation":9159,"Ġpatron":9160,"ĠHudson":9161,"ouver":9162,"emen":9163,"Ġacou":9164,"Ġsecretary":9165,"Ġdoubt":9166,"Ġodd":9167,"acc":9168,"Ġforecast":9169,"SA":9170,"folk":9171,"ĠMuch":9172,"Ġkiss":9173,"Ġdrink":9174,"ecticut":9175,"Ġaccum":9176,"ĠLex":9177,"Ġ109":9178,"Ġengage":9179,"ĠSoul":9180,"ĠHaving":9181,"umps":9182,"Ġrif":9183,"Ġsq":9184,"Ġcup":9185,"Ġstick":9186,"Ġhoriz":9187,"Ġaltered":9188,"ĠFif":9189,"ĠLost":9190,"ĠEnterprise":9191,"Ġoverseas":9192,"tario":9193,"Ġchest":9194,"LC":9195,"terbury":9196,"Ġmayor":9197,"Ġdeterior":9198,"ĠWor":9199,"ĠRu":9200,"ĠRights":9201,"Ġdefences":9202,"Ġlisten":9203,"atern":9204,"Ġexpand":9205,"Ġbaby":9206,"ĠInn":9207,"Ġerected":9208,"irty":9209,"ultan":9210,"Ġcompounds":9211,"Ġcancel":9212,"Ġrenov":9213,"Ġsettlers":9214,"ĠBuddh":9215,"ĠMadagascar":9216,"Ġbid":9217,"ĠBosn":9218,"ĠArnold":9219,"cles":9220,"ĠOntario":9221,"ication":9222,"Ġstress":9223,"ĠJimmy":9224,"Ġsalt":9225,"shore":9226,"Ġlegislature":9227,"Ġmusician":9228,"grad":9229,"EC":9230,"otyp":9231,"Ġobjective":9232,"ĠJonathan":9233,"ĠImpact":9234,"inces":9235,"aro":9236,"ĠGray":9237,"ĠGirls":9238,"ĠTel":9239,"ĠBaker":9240,"Ġdecisions":9241,"Ġhighways":9242,"Ġraising":9243,"Ġdisl":9244,"ĠTracy":9245,"Ġaerial":9246,"ĠAllies":9247,"warf":9248,"Ġvoy":9249,"Ġaftermath":9250,"Ġconcentration":9251,"Ġconversion":9252,"Ġcampaigns":9253,"Ġsolar":9254,"ensively":9255,"ĠDefence":9256,"Ġliquid":9257,"Ġorn":9258,"Ġsoldier":9259,"Ġsitting":9260,"Ġindicating":9261,"ĠObama":9262,"Ġconspir":9263,"Ġexactly":9264,"asant":9265,"owed":9266,"Ġhidden":9267,"ĠBrig":9268,"ĠMcM":9269,"oons":9270,"Ġwait":9271,"Ġprove":9272,"Ġorganised":9273,"Ġwealthy":9274,"ĠSet":9275,"ĠNear":9276,"Ġscen":9277,"Ġpermitted":9278,"ĠConnecticut":9279,"Ġacknowledged":9280,"Ġwrestling":9281,"Ġdanger":9282,"ĠTon":9283,"Ġtrouble":9284,"Ġhapp":9285,"ĠChel":9286,"Ġimprovements":9287,"Ġdissipated":9288,"ĠPeace":9289,"Ġgraduated":9290,"Ġstriking":9291,"Ġdressed":9292,"Ġrealized":9293,"yrus":9294,"Ġappropriate":9295,"ĠPhoenix":9296,"fe":9297,"ĠTit":9298,"Ġconfron":9299,"ĠWayne":9300,"ĠUniversal":9301,"ĠBirmingham":9302,"ĠAld":9303,"ĠPruss":9304,"Ġski":9305,"atropical":9306,"ĠCra":9307,"ĠFat":9308,"ĠVik":9309,"Ġradical":9310,"Ġexecution":9311,"ĠKarl":9312,"Ġparent":9313,"ĠJup":9314,"Ġmeter":9315,"Ġobservations":9316,"ĠPearl":9317,"Ġraids":9318,"irts":9319,"Ġremoval":9320,"ĠRachel":9321,"ĠCanterbury":9322,"Ġprofit":9323,"Ġtravels":9324,"Ġinterpretation":9325,"bird":9326,"ĠSpart":9327,"Ġfewer":9328,"ĠMcCartney":9329,"Ġcelebrated":9330,"ĠFurthermore":9331,"Ġvenue":9332,"ĠGoth":9333,"Ġencl":9334,"Ġpublications":9335,"ĠWorks":9336,"aments":9337,"oker":9338,"uese":9339,"Ġinitiated":9340,"Ġaggressive":9341,"inister":9342,"ifies":9343,"rawn":9344,"Ġtheatrical":9345,"Ġturret":9346,"ĠRat":9347,"Ġchapel":9348,"Ġpublishing":9349,"Ġrequires":9350,"Ġevacuated":9351,"elli":9352,"ancouver":9353,"ĠFriday":9354,"Ġdebt":9355,"Ġfounding":9356,"Ġorigins":9357,"Ġoriginated":9358,"ĠCommunity":9359,"Ġjurisd":9360,"mund":9361,"ĠPil":9362,"Ġstationed":9363,"ĠOutstanding":9364,"Ġexplan":9365,"ĠPars":9366,"Ġdefending":9367,"Ġestablishing":9368,"Ġcannon":9369,"ĠMaj":9370,"Ġconnect":9371,"itals":9372,"ulous":9373,"Ġconsidering":9374,"Ġrebellion":9375,"ivation":9376,"Ġshorter":9377,"Ġarrangements":9378,"Ġannouncement":9379,"Ġnet":9380,"Ġsupple":9381,"Ġbrill":9382,"tha":9383,"raction":9384,"Ġcutting":9385,"ĠPlayers":9386,"rac":9387,"Ġguarant":9388,"Ġtort":9389,"Ġbones":9390,"Ġfantasy":9391,"ĠKeith":9392,"Ġsteps":9393,"ng":9394,"Ġ152":9395,"Ġmagazines":9396,"Ġconnecting":9397,"ĠBoys":9398,"Ġapproaching":9399,"itudes":9400,"Ġhosts":9401,"autical":9402,"Ġdonated":9403,"Ġaspect":9404,"Ġextratropical":9405,"stan":9406,"Ġplacing":9407,"adier":9408,"Ġmush":9409,"Ġinsects":9410,"Ġmagic":9411,"ĠMountains":9412,"Ġwalking":9413,"Ġlying":9414,"ĠLess":9415,"Ġstrategic":9416,"itively":9417,"ĠMans":9418,"Ġongoing":9419,"ĠPubl":9420,"Ġdiscussion":9421,"ĠBobby":9422,"olly":9423,"osm":9424,"hears":9425,"ennium":9426,"Ġcolleagues":9427,"Ġtalent":9428,"Ġlin":9429,"ĠLang":9430,"Ġfunny":9431,"Several":9432,"Ġmemor":9433,"imp":9434,"Ġmonitor":9435,"ĠMorrison":9436,"ĠVancouver":9437,"Ġoutl":9438,"ĠShaw":9439,"Ġyoungest":9440,"ĠKit":9441,"Ġedited":9442,"ĠDrive":9443,"Ġclosest":9444,"ĠChampion":9445,"Ġpredict":9446,"Ġqualified":9447,"Ġhypothes":9448,"Ġgathered":9449,"ĠAdministration":9450,"ĠRal":9451,"Ġbattlecru":9452,"Ġtubes":9453,"ĠTrophy":9454,"Ġdecide":9455,"Ġ173":9456,"Ġdrag":9457,"ĠMint":9458,"dess":9459,"pent":9460,"erg":9461,"rous":9462,"ĠPortuguese":9463,"Ġforth":9464,"ĠGate":9465,"ipper":9466,"Ġvolumes":9467,"Ġputting":9468,"Ġlandscape":9469,"Ġwatershed":9470,"ĠEdin":9471,"Ġwithdrawal":9472,"jan":9473,"ova":9474,"Ġstrongest":9475,"Ġindicates":9476,"ĠSymph":9477,"Ġangle":9478,"ĠPakistan":9479,"ĠSem":9480,"ĠCost":9481,"ecution":9482,"ĠRub":9483,"ĠDall":9484,"Ġglac":9485,"Ġ1860":9486,"ĠWag":9487,"Ġmarkets":9488,"Ġswitch":9489,"Ġrede":9490,"Ġidentify":9491,"Ġpale":9492,"ĠHugh":9493,"Ġ1893":9494,"ĠForeign":9495,"Ġsupplied":9496,"ĠTodd":9497,"Ġforg":9498,"Ġcircle":9499,"boy":9500,"ĠVe":9501,"Ġexposure":9502,"opp":9503,"Ġspecimen":9504,"Ġmerely":9505,"ĠBernard":9506,"Ġanth":9507,"Ġcollapsed":9508,"onald":9509,"ĠComple":9510,"Ġgray":9511,"ĠWindows":9512,"Ġchallenged":9513,"ĠHold":9514,"ĠDa":9515,"ĠFel":9516,"ĠNine":9517,"Ġcaps":9518,"Ġconfront":9519,"imented":9520,"Ġpartial":9521,"Ġdensity":9522,"ĠTriple":9523,"ĠGriff":9524,"Ġcub":9525,"otte":9526,"ĠNAS":9527,"mi":9528,"Ġles":9529,"Ġdesert":9530,"Ġvisits":9531,"Ġdubbed":9532,"earing":9533,"Ġshift":9534,"Ġlimits":9535,"Most":9536,"Ġaffili":9537,"Ġfeeding":9538,"ĠJupiter":9539,"Ġbare":9540,"ĠLegend":9541,"ĠHampshire":9542,"Ġbeam":9543,"Ġ1896":9544,"ĠManu":9545,"ĠBath":9546,"ĠChampions":9547,"Ġprovision":9548,"Ġeducational":9549,"ĠMeteor":9550,"Ġhydrogen":9551,"Ġ104":9552,"Ġconventional":9553,"Ġseized":9554,"AC":9555,"cks":9556,"enna":9557,"Ġduo":9558,"ĠNCAA":9559,"Ġcreek":9560,"Ġspac":9561,"Ġannually":9562,"ĠReserve":9563,"Ġconcentrated":9564,"Ġtopped":9565,"Ġbearing":9566,"ĠDiam":9567,"aks":9568,"Ġmembership":9569,"ĠLion":9570,"Ġchampions":9571,"Ġplain":9572,"soft":9573,"elta":9574,"Ġattending":9575,"adal":9576,"ĠStat":9577,"Ġclin":9578,"Ġassembly":9579,"Ġcorps":9580,"amental":9581,"join":9582,"Ġparody":9583,"Ġranges":9584,"Äį":9585,"idal":9586,"irates":9587,"case":9588,"Ġexha":9589,"Ġcock":9590,"ested":9591,"Ġ1898":9592,"onium":9593,"Ġnavy":9594,"ĠHann":9595,"Ġoffense":9596,"Ġdogs":9597,"ĠPatt":9598,"ĠNapoleon":9599,"da":9600,"ĠCharts":9601,"Ġemphasis":9602,"ĠEdinburgh":9603,"Ġsad":9604,"ĠMission":9605,"ĠAfghan":9606,"Ġweekly":9607,"Ġfurn":9608,"ugg":9609,"Ġproductions":9610,"Ġexercise":9611,"igenous":9612,"Many":9613,"Ġunless":9614,"angle":9615,"Ġtalking":9616,"ĠJar":9617,"Ġinvestigate":9618,"Ġticket":9619,"ĠDwight":9620,"ĠAy":9621,"agger":9622,"Ġbasin":9623,"ĠEventually":9624,"Ġtrough":9625,"Ġgrave":9626,"ĠBradman":9627,"uzzle":9628,"terior":9629,"ĠHur":9630,"athers":9631,"Ġlegit":9632,"Ġpromotional":9633,"Ġanime":9634,"ĠOpp":9635,"hyl":9636,"ĠShip":9637,"Ġbacter":9638,"ĠCov":9639,"agh":9640,"Ġprize":9641,"Ġcoup":9642,"bow":9643,"ĠMem":9644,"Ġportrayal":9645,"Ġresol":9646,"Ġjury":9647,"Ġceased":9648,"Ġfortress":9649,"Ġflooded":9650,"ĠTNA":9651,"Ġadvertising":9652,"hous":9653,"Ġregime":9654,"Ġfill":9655,"Ġbond":9656,"Ġbone":9657,"ĠBi":9658,"pled":9659,"Ġconservation":9660,"Ġbirthday":9661,"ĠVictorian":9662,"ika":9663,"Ġemployment":9664,"Ġuncle":9665,"Ġpersons":9666,"idae":9667,"Ġoutput":9668,"ieth":9669,"Ġ111":9670,"Ġcruc":9671,"ĠDemocrats":9672,"ĠMosc":9673,"ĠLaur":9674,"ĠGary":9675,"oa":9676,"Ġattitude":9677,"Ġsending":9678,"Ġphotographs":9679,"ello":9680,"Ġretro":9681,"Ġ172":9682,"Ġsoftware":9683,"Ġbishop":9684,"ported":9685,"Ġeval":9686,"ĠConvention":9687,"Ġexperimental":9688,"Ġhitting":9689,"Ġ350":9690,"Ġquestioned":9691,"rolled":9692,"Ġqueen":9693,"Ġguide":9694,"onica":9695,"otal":9696,"Ġscattered":9697,"Ġdrinking":9698,"ĠYorkshire":9699,"Ġballad":9700,"Ġtranslation":9701,"ĠSig":9702,"aux":9703,"ĠVillage":9704,"Ġunderwent":9705,"roying":9706,"Ġ127":9707,"Ġmature":9708,"Ġprovincial":9709,"Ġunclear":9710,"ĠChronicle":9711,"Ġoverwhel":9712,"Ġendors":9713,"Ġassembled":9714,"ĠMarvel":9715,"Ġcoff":9716,"Ġreplied":9717,"Ġaggreg":9718,"Ġcousin":9719,"Ġpapers":9720,"ĠNO":9721,"Ġbrig":9722,"Ġ1899":9723,"Ġrepresentatives":9724,"uart":9725,"ĠSi":9726,"umble":9727,"phone":9728,"Ġlawyer":9729,"abe":9730,"iper":9731,"ĠAlice":9732,"Ġcommentary":9733,"Ġswimming":9734,"ãĥ":9735,"Ġcens":9736,"iffs":9737,"DI":9738,"Ġimagery":9739,"Ġproclaim":9740,"ĠBeng":9741,"Ġclock":9742,"Ġoutd":9743,"Ġcoat":9744,"ĠPotter":9745,"ĠBrothers":9746,"Ġthirteen":9747,"Ġempire":9748,"ĠOur":9749,"Ġliberal":9750,"ĠPersonal":9751,"Ġloved":9752,"ashes":9753,"Ġexternal":9754,"Ġcomprom":9755,"assador":9756,"hammad":9757,"Ġlawsu":9758,"ĠChristianity":9759,"Ġterrain":9760,"ĠCycl":9761,"Ġacoustic":9762,"ĠFlying":9763,"Ġexclusive":9764,"Ãº":9765,"itis":9766,"aders":9767,"Ġslave":9768,"Ġelectricity":9769,"Ġpictures":9770,"Ġduration":9771,"ĠTol":9772,"Ġstreak":9773,"Ġmonaster":9774,"Ġdaughters":9775,"Ġmovies":9776,"ĠÃĨthel":9777,"Ġwire":9778,"ĠLen":9779,"angel":9780,"Ġdevast":9781,"ĠCritics":9782,"ĠArgentina":9783,"ĠSak":9784,"ĠDale":9785,"Ġbranches":9786,"Ġaccompanying":9787,"Ġsurrendered":9788,"Ġmac":9789,"ĠTob":9790,"ĠChes":9791,"ĠYears":9792,"Ġarrives":9793,"Ġtenure":9794,"ĠAbd":9795,"ĠSay":9796,"atever":9797,"ĠLas":9798,"Ġstronger":9799,"Ġidentical":9800,"Ġburial":9801,"ications":9802,"ĠCelt":9803,"Ġexpert":9804,"hard":9805,"ĠDod":9806,"ĠVi":9807,"Ġsuccession":9808,"ĠHonor":9809,"ersed":9810,"ĠSeason":9811,"Ġreverse":9812,"Ġcomponents":9813,"Ġbeats":9814,"ĠJoy":9815,"Ġdread":9816,"riors":9817,"Ġstere":9818,"ĠWii":9819,"Ġcharter":9820,"Ġreveal":9821,"ĠFinland":9822,"ĠType":9823,"ĠPin":9824,"ĠLib":9825,"ensed":9826,"anner":9827,"ĠDeb":9828,"Ġreducing":9829,"Ġreinforcements":9830,"Ġprices":9831,"Ġcad":9832,"Ġmal":9833,"pler":9834,"Ġtrading":9835,"ĠLloyd":9836,"Ġsang":9837,"ĠQueensland":9838,"Ġmask":9839,"Ġdestroying":9840,"Ġspaces":9841,"Ġfailing":9842,"ĠNatural":9843,"Ġscr":9844,"aja":9845,"Ġcompeting":9846,"ĠOliver":9847,"AR":9848,"ĠLt":9849,"ĠGene":9850,"Ġpenet":9851,"Ġmechanical":9852,"Ġexclusively":9853,"ĠLat":9854,"ologies":9855,"ĠFleming":9856,"atched":9857,"Ġrecall":9858,"Ġ169":9859,"ĠHeritage":9860,"ĠCommunist":9861,"hu":9862,"ĠBach":9863,"ĠHawaii":9864,"Ġstops":9865,"Ġatomic":9866,"redits":9867,"ellation":9868,"Ġcomponent":9869,"Ġisot":9870,"Ġscar":9871,"Ġ108":9872,"ĠMaya":9873,"ĠCollins":9874,"ĠBooks":9875,"ĠProtest":9876,"Ġprecipitation":9877,"gie":9878,"amas":9879,"Ġdevelopers":9880,"Ġslavery":9881,"ĠBoat":9882,"ĠIsa":9883,"Ġ1850":9884,"igrants":9885,"Ġgovernments":9886,"Ġtraded":9887,"Ġdevices":9888,"10":9889,"place":9890,"ĠMonte":9891,"ricts":9892,"ĠAnc":9893,"ĠUEFA":9894,"ĠFund":9895,"ĠBelgian":9896,"Ġconsistent":9897,"Ġbanned":9898,"Ġreward":9899,"ĠMong":9900,"Ġfossil":9901,"Ġcenters":9902,"Ġmini":9903,"ĠJama":9904,"ibilities":9905,"Ġvaried":9906,"Ġflowers":9907,"ĠRangers":9908,"Ġelig":9909,"Ġartificial":9910,"Ġtube":9911,"Ġradiation":9912,"ĠMarge":9913,"Ġdecay":9914,"Ġconsiders":9915,"Ġcounterp":9916,"Ġplatforms":9917,"Ġtip":9918,"eping":9919,"Ġvirus":9920,"OS":9921,"ĠEmmy":9922,"Ġpole":9923,"Ġmyst":9924,"Ġredes":9925,"Ġcontribution":9926,"Ġwish":9927,"Ġearthquake":9928,"ĠMeg":9929,"Ġelectrical":9930,"ĠNorfolk":9931,"Ġdisb":9932,"Ġpolar":9933,"Ġburned":9934,"ĠLiberal":9935,"pike":9936,"Ġtomb":9937,"ĠJerry":9938,"Ġhybr":9939,"Ġarchitectural":9940,"Ġdict":9941,"Ġwaste":9942,"Ġreviewed":9943,"Ġhumor":9944,"Ġsongwriter":9945,"ĠTurner":9946,"ioc":9947,"Äĥ":9948,"ĠPrix":9949,"Ġboilers":9950,"asm":9951,"ĠPap":9952,"Ġproceeded":9953,"Ġobsc":9954,"Ġunderstood":9955,"ĠNa":9956,"ista":9957,"Ġfourteen":9958,"Ġpush":9959,"Ġadvised":9960,"Ġhandled":9961,"Ġfrequency":9962,"Ġintersects":9963,"Ġtalks":9964,"Arthur":9965,"Ġdestroyer":9966,"Ġimprovement":9967,"Ġprofession":9968,"rastructure":9969,"uras":9970,"ethel":9971,"ĠHowe":9972,"Ġheir":9973,"Ġ1897":9974,"ĠTransportation":9975,"dy":9976,"ĠPam":9977,"ĠHardy":9978,"acles":9979,"ĠPink":9980,"Ġamateur":9981,"Ġrequirements":9982,"Ġtexts":9983,"Ġbath":9984,"ĠAx":9985,"ĠMalt":9986,"Ġtheore":9987,"ĠCricket":9988,"ags":9989,"Ġcopper":9990,"ĠServices":9991,"Ġconceived":9992,"Ġsamples":9993,"Ġment":9994,"Ġ163":9995,"Ġinduct":9996,"ĠThose":9997,"ĠBeaut":9998,"ĠTraining":9999}